// Temperature Prediction Model - TinyML 
// Auto-generated file - Do not edit manually
// Model trained on AHT20 + BMP280 sensor data

#ifndef TEMPERATURE_MODEL_H
#define TEMPERATURE_MODEL_H

// Model information
#define WINDOW_SIZE 10
#define NUM_FEATURES 4
#define NUM_HORIZONS 3

// Feature names
const char* feature_names[] = {
    "Temp_AHT20_C",
    "Umid_AHT20_pct",
    "Temp_BMP280_C",
    "Press_BMP280_hPa"
};

// Horizon names
const char* horizon_names[] = {
    "5 minutes",
    "10 minutes",
    "15 minutes"
};

const unsigned char temperature_model[] = {
  0x1c, 0x00, 0x00, 0x00, 0x54, 0x46, 0x4c, 0x33, 0x14, 0x00, 0x20, 0x00, 
  0x1c, 0x00, 0x18, 0x00, 0x14, 0x00, 0x10, 0x00, 0x0c, 0x00, 0x00, 0x00, 
  0x08, 0x00, 0x04, 0x00, 0x14, 0x00, 0x00, 0x00, 0x1c, 0x00, 0x00, 0x00, 
  0x8c, 0x00, 0x00, 0x00, 0xe4, 0x00, 0x00, 0x00, 0x60, 0x21, 0x00, 0x00, 
  0x70, 0x21, 0x00, 0x00, 0x84, 0x2e, 0x00, 0x00, 0x03, 0x00, 0x00, 0x00, 
  0x01, 0x00, 0x00, 0x00, 0x04, 0x00, 0x00, 0x00, 0xf6, 0xdc, 0xff, 0xff, 
  0x0c, 0x00, 0x00, 0x00, 0x1c, 0x00, 0x00, 0x00, 0x3c, 0x00, 0x00, 0x00, 
  0x0f, 0x00, 0x00, 0x00, 0x73, 0x65, 0x72, 0x76, 0x69, 0x6e, 0x67, 0x5f, 
  0x64, 0x65, 0x66, 0x61, 0x75, 0x6c, 0x74, 0x00, 0x01, 0x00, 0x00, 0x00, 
  0x04, 0x00, 0x00, 0x00, 0x90, 0xff, 0xff, 0xff, 0x15, 0x00, 0x00, 0x00, 
  0x04, 0x00, 0x00, 0x00, 0x08, 0x00, 0x00, 0x00, 0x6f, 0x75, 0x74, 0x70, 
  0x75, 0x74, 0x5f, 0x30, 0x00, 0x00, 0x00, 0x00, 0x01, 0x00, 0x00, 0x00, 
  0x04, 0x00, 0x00, 0x00, 0x82, 0xdf, 0xff, 0xff, 0x04, 0x00, 0x00, 0x00, 
  0x0f, 0x00, 0x00, 0x00, 0x6b, 0x65, 0x72, 0x61, 0x73, 0x5f, 0x74, 0x65, 
  0x6e, 0x73, 0x6f, 0x72, 0x5f, 0x36, 0x34, 0x00, 0x02, 0x00, 0x00, 0x00, 
  0x34, 0x00, 0x00, 0x00, 0x04, 0x00, 0x00, 0x00, 0xdc, 0xff, 0xff, 0xff, 
  0x18, 0x00, 0x00, 0x00, 0x04, 0x00, 0x00, 0x00, 0x13, 0x00, 0x00, 0x00, 
  0x43, 0x4f, 0x4e, 0x56, 0x45, 0x52, 0x53, 0x49, 0x4f, 0x4e, 0x5f, 0x4d, 
  0x45, 0x54, 0x41, 0x44, 0x41, 0x54, 0x41, 0x00, 0x08, 0x00, 0x0c, 0x00, 
  0x08, 0x00, 0x04, 0x00, 0x08, 0x00, 0x00, 0x00, 0x17, 0x00, 0x00, 0x00, 
  0x04, 0x00, 0x00, 0x00, 0x13, 0x00, 0x00, 0x00, 0x6d, 0x69, 0x6e, 0x5f, 
  0x72, 0x75, 0x6e, 0x74, 0x69, 0x6d, 0x65, 0x5f, 0x76, 0x65, 0x72, 0x73, 
  0x69, 0x6f, 0x6e, 0x00, 0x19, 0x00, 0x00, 0x00, 0x78, 0x20, 0x00, 0x00, 
  0x70, 0x20, 0x00, 0x00, 0x00, 0x20, 0x00, 0x00, 0xa8, 0x1f, 0x00, 0x00, 
  0x38, 0x1f, 0x00, 0x00, 0x1c, 0x1f, 0x00, 0x00, 0x00, 0x1f, 0x00, 0x00, 
  0xe4, 0x1e, 0x00, 0x00, 0xd4, 0x0c, 0x00, 0x00, 0x44, 0x08, 0x00, 0x00, 
  0x14, 0x07, 0x00, 0x00, 0x04, 0x01, 0x00, 0x00, 0xf0, 0x00, 0x00, 0x00, 
  0xdc, 0x00, 0x00, 0x00, 0xd4, 0x00, 0x00, 0x00, 0xcc, 0x00, 0x00, 0x00, 
  0xc4, 0x00, 0x00, 0x00, 0xbc, 0x00, 0x00, 0x00, 0xb4, 0x00, 0x00, 0x00, 
  0xac, 0x00, 0x00, 0x00, 0xa4, 0x00, 0x00, 0x00, 0x9c, 0x00, 0x00, 0x00, 
  0x94, 0x00, 0x00, 0x00, 0x74, 0x00, 0x00, 0x00, 0x04, 0x00, 0x00, 0x00, 
  0x62, 0xe0, 0xff, 0xff, 0x04, 0x00, 0x00, 0x00, 0x60, 0x00, 0x00, 0x00, 
  0x10, 0x00, 0x00, 0x00, 0x00, 0x00, 0x00, 0x00, 0x08, 0x00, 0x0e, 0x00, 
  0x08, 0x00, 0x04, 0x00, 0x08, 0x00, 0x00, 0x00, 0x10, 0x00, 0x00, 0x00, 
  0x24, 0x00, 0x00, 0x00, 0x00, 0x00, 0x06, 0x00, 0x08, 0x00, 0x04, 0x00, 
  0x06, 0x00, 0x00, 0x00, 0x04, 0x00, 0x00, 0x00, 0x00, 0x00, 0x00, 0x00, 
  0x0c, 0x00, 0x18, 0x00, 0x14, 0x00, 0x10, 0x00, 0x0c, 0x00, 0x04, 0x00, 
  0x0c, 0x00, 0x00, 0x00, 0x21, 0xb0, 0xa3, 0xa1, 0x57, 0xb5, 0xcd, 0xcd, 
  0x02, 0x00, 0x00, 0x00, 0x02, 0x00, 0x00, 0x00, 0x04, 0x00, 0x00, 0x00, 
  0x06, 0x00, 0x00, 0x00, 0x32, 0x2e, 0x32, 0x30, 0x2e, 0x30, 0x00, 0x00, 
  0xce, 0xe0, 0xff, 0xff, 0x04, 0x00, 0x00, 0x00, 0x10, 0x00, 0x00, 0x00, 
  0x31, 0x2e, 0x31, 0x30, 0x2e, 0x30, 0x00, 0x00, 0x00, 0x00, 0x00, 0x00, 
  0x00, 0x00, 0x00, 0x00, 0x84, 0xd3, 0xff, 0xff, 0x88, 0xd3, 0xff, 0xff, 
  0x8c, 0xd3, 0xff, 0xff, 0x90, 0xd3, 0xff, 0xff, 0x94, 0xd3, 0xff, 0xff, 
  0x98, 0xd3, 0xff, 0xff, 0x9c, 0xd3, 0xff, 0xff, 0xa0, 0xd3, 0xff, 0xff, 
  0xa4, 0xd3, 0xff, 0xff, 0x0e, 0xe1, 0xff, 0xff, 0x04, 0x00, 0x00, 0x00, 
  0x04, 0x00, 0x00, 0x00, 0x01, 0x00, 0x00, 0x00, 0x1e, 0xe1, 0xff, 0xff, 
  0x04, 0x00, 0x00, 0x00, 0x04, 0x00, 0x00, 0x00, 0xfd, 0xff, 0xff, 0xff, 
  0x2e, 0xe1, 0xff, 0xff, 0x04, 0x00, 0x00, 0x00, 0x00, 0x06, 0x00, 0x00, 
  0xf6, 0x90, 0x49, 0xbe, 0xba, 0x1a, 0x36, 0x3e, 0x3b, 0x0e, 0xe7, 0xbd, 
  0xaf, 0x77, 0x9e, 0xbd, 0x79, 0xd9, 0x1a, 0x3e, 0x85, 0x38, 0xb7, 0x3e, 
  0x4a, 0xb1, 0x42, 0x3d, 0x5a, 0xce, 0x19, 0xbe, 0x97, 0xfc, 0x49, 0x3e, 
  0xa4, 0x5c, 0xde, 0x3e, 0xc7, 0x8a, 0x96, 0xbc, 0x93, 0x33, 0xce, 0x3d, 
  0x8b, 0x33, 0xdb, 0x3e, 0xab, 0x91, 0xdd, 0x3e, 0x57, 0x35, 0xdc, 0x3e, 
  0x09, 0xa7, 0x3c, 0xbd, 0xf1, 0x2a, 0xee, 0x3e, 0x93, 0x9e, 0x23, 0x3d, 
  0x2a, 0x71, 0x50, 0xbe, 0xdc, 0x6e, 0x91, 0x3e, 0x40, 0xd2, 0xe1, 0x3d, 
  0xc7, 0x60, 0x5f, 0x3e, 0x82, 0xfc, 0x30, 0xbe, 0x04, 0xfa, 0x16, 0xbe, 
  0x23, 0x6b, 0xeb, 0x3e, 0x16, 0x2f, 0x0e, 0xbe, 0x48, 0x59, 0x59, 0x3e, 
  0xdc, 0x86, 0xef, 0x3e, 0x12, 0x85, 0xb6, 0x3e, 0x2a, 0xf6, 0x39, 0x3e, 
  0x62, 0x3c, 0x12, 0x3f, 0xe6, 0x21, 0x1a, 0x3e, 0xc3, 0xc0, 0x26, 0x3c, 
  0xc1, 0xe3, 0xa9, 0x3e, 0xff, 0xa0, 0x5d, 0x3e, 0x10, 0x37, 0x25, 0x3d, 
  0xd7, 0x1e, 0x17, 0x3f, 0x62, 0xce, 0xab, 0x3e, 0x5d, 0x0c, 0xe5, 0x3d, 
  0x6f, 0x44, 0x7c, 0xbe, 0xb0, 0xe9, 0x1d, 0x3e, 0xc6, 0x0c, 0x5d, 0x3e, 
  0xea, 0x76, 0x1f, 0xbe, 0x00, 0x40, 0x87, 0xbd, 0xae, 0x19, 0xc4, 0x3e, 
  0xcc, 0xbb, 0xc1, 0x3e, 0x48, 0xc4, 0xcd, 0xbd, 0x2a, 0x27, 0x81, 0x3e, 
  0x0a, 0x3c, 0x52, 0x3e, 0xc7, 0xdd, 0x09, 0xbd, 0xf4, 0xae, 0xc9, 0x3e, 
  0xb4, 0xee, 0x78, 0x3e, 0x94, 0xca, 0x0b, 0x3e, 0x8d, 0xd7, 0xb6, 0x3e, 
  0x0a, 0x35, 0xf6, 0xbd, 0xbd, 0xb9, 0xe9, 0x3e, 0x9c, 0x73, 0xe3, 0x3e, 
  0x70, 0x43, 0xc9, 0x3e, 0x56, 0x15, 0xa5, 0x3e, 0x15, 0x6e, 0x0e, 0xbe, 
  0xc4, 0x34, 0xac, 0xbe, 0x31, 0x1b, 0x7b, 0x3e, 0xcc, 0xd4, 0x2e, 0xbe, 
  0xae, 0x00, 0xdf, 0x3e, 0x9b, 0x29, 0x6b, 0x3e, 0xe0, 0x14, 0xac, 0x3e, 
  0x6b, 0x4f, 0x6e, 0x3e, 0x9e, 0x94, 0x5b, 0xbe, 0xe2, 0xd4, 0x4d, 0x3e, 
  0x5c, 0xc3, 0x5b, 0x3f, 0xa8, 0xfc, 0xc3, 0xbd, 0xa4, 0x28, 0x16, 0xbe, 
  0x4d, 0x1a, 0xe2, 0x3e, 0x54, 0xf2, 0xe1, 0x3c, 0x50, 0x5f, 0xa6, 0x3e, 
  0xd4, 0x0a, 0x88, 0xbd, 0xce, 0x09, 0x95, 0x3d, 0xa6, 0xc7, 0xf1, 0x3e, 
  0x10, 0xd9, 0xac, 0x3d, 0xf1, 0x50, 0x18, 0x3e, 0x2a, 0x49, 0xca, 0x3d, 
  0xc3, 0x54, 0x5d, 0x3e, 0xc8, 0x69, 0x75, 0xbe, 0x62, 0x54, 0x4c, 0x3d, 
  0x1e, 0xb7, 0x8c, 0x3e, 0xfe, 0x45, 0x0f, 0x3e, 0x52, 0x4a, 0xa1, 0xbe, 
  0x44, 0x45, 0x01, 0xbe, 0xf9, 0xdb, 0x99, 0xbe, 0x9e, 0x6a, 0x52, 0x3e, 
  0xc0, 0x21, 0xb2, 0xbe, 0xd5, 0xf5, 0xdc, 0x3c, 0xbb, 0x7c, 0x8d, 0xbe, 
  0xf6, 0x93, 0xaf, 0x3d, 0x8f, 0xe2, 0x28, 0x3e, 0x79, 0x1c, 0x0d, 0x3e, 
  0xbd, 0x06, 0xeb, 0x3d, 0xa7, 0xd9, 0x92, 0x3e, 0xcb, 0xc8, 0xab, 0x3e, 
  0x60, 0x35, 0x90, 0x3e, 0x4f, 0x91, 0xc6, 0xbd, 0xfc, 0x2e, 0x31, 0x3f, 
  0x21, 0x4f, 0xba, 0xbd, 0x98, 0x2b, 0x2c, 0xbb, 0x65, 0x05, 0x88, 0x3e, 
  0x0d, 0x89, 0xbb, 0x3e, 0xb2, 0x7a, 0x1b, 0x3e, 0x5e, 0xe3, 0x12, 0x3e, 
  0x61, 0xce, 0xcd, 0x39, 0x0b, 0x97, 0xd0, 0x3e, 0x45, 0xef, 0x12, 0x3f, 
  0xdb, 0xaf, 0xe7, 0xbd, 0x23, 0x8c, 0xd1, 0x3e, 0xcb, 0x9b, 0x83, 0x3e, 
  0x9e, 0xbc, 0x15, 0x3e, 0x46, 0x90, 0x90, 0xbe, 0x4b, 0x01, 0xc5, 0x3e, 
  0x34, 0x9a, 0x0e, 0x3f, 0x3c, 0x4f, 0x42, 0xbe, 0x1a, 0x37, 0x57, 0xbe, 
  0x9b, 0xc3, 0x10, 0xbd, 0x7d, 0xf9, 0x54, 0xbe, 0xf5, 0xed, 0xe3, 0x3c, 
  0xfc, 0xf3, 0x9a, 0x3e, 0x9b, 0x8e, 0x2c, 0x3f, 0x50, 0x84, 0xd6, 0xba, 
  0x44, 0xac, 0x06, 0x3f, 0xbf, 0x95, 0xc7, 0x3e, 0x55, 0x9c, 0x9b, 0xbe, 
  0x48, 0xab, 0x0a, 0x3e, 0xe3, 0x56, 0x67, 0x3b, 0x25, 0x02, 0x9f, 0x3e, 
  0x6e, 0xce, 0x99, 0x3e, 0x93, 0xe3, 0x36, 0x3e, 0xf7, 0x57, 0x92, 0x3e, 
  0xa5, 0x77, 0x86, 0xbe, 0x45, 0x79, 0x9b, 0x3d, 0x8c, 0x10, 0x41, 0xbe, 
  0x17, 0x5d, 0xf6, 0xbe, 0x88, 0xe4, 0x00, 0x3e, 0xdb, 0x62, 0x78, 0xbe, 
  0x34, 0xbd, 0xec, 0xbd, 0x90, 0x27, 0x29, 0x3d, 0x20, 0xd2, 0xa5, 0xbd, 
  0x4f, 0x4b, 0x32, 0x3d, 0x83, 0xaa, 0x7f, 0x3e, 0xba, 0x1a, 0x5f, 0xbe, 
  0xc7, 0xe5, 0x99, 0xbd, 0xf5, 0x13, 0x8a, 0xbe, 0xd8, 0x4a, 0x68, 0xbe, 
  0x1a, 0xdf, 0x7d, 0x3d, 0xb2, 0x1b, 0x87, 0x3e, 0x3d, 0x44, 0x1e, 0xbe, 
  0x2c, 0x4d, 0x7f, 0x3d, 0xd8, 0x6f, 0x8f, 0x3e, 0x8c, 0x87, 0xbb, 0xbd, 
  0x42, 0xf2, 0xb9, 0xbe, 0x1c, 0xad, 0x88, 0xbd, 0x57, 0x72, 0x0c, 0x3e, 
  0xb6, 0x4d, 0x96, 0xbe, 0xfb, 0x1f, 0x80, 0x3e, 0x25, 0x9d, 0x30, 0xbd, 
  0xd9, 0xc4, 0xf9, 0x3e, 0x99, 0x7a, 0x99, 0x3c, 0x18, 0x94, 0xbd, 0x3e, 
  0x5f, 0x40, 0xff, 0x3e, 0xb2, 0xbd, 0xfe, 0x3d, 0x4a, 0x1a, 0x8a, 0x3e, 
  0xb6, 0xd2, 0x2a, 0xbd, 0x13, 0x4f, 0xed, 0x3e, 0xe1, 0x1d, 0x93, 0x3e, 
  0x40, 0x1d, 0xbe, 0x3c, 0x23, 0xc3, 0x23, 0xbd, 0x12, 0x8e, 0x0e, 0xbe, 
  0x98, 0x07, 0x41, 0x3e, 0xbe, 0xf4, 0xad, 0x3d, 0xf6, 0x9e, 0x82, 0x39, 
  0x44, 0x80, 0x43, 0x3e, 0x0f, 0xe9, 0x06, 0x3f, 0xda, 0xf8, 0x4a, 0x3d, 
  0xff, 0xbf, 0xf8, 0x3e, 0x6d, 0x50, 0x34, 0x3f, 0x6b, 0xc5, 0xa1, 0xbd, 
  0xc6, 0xef, 0xdf, 0x3d, 0x7d, 0xc0, 0x1c, 0xbe, 0xdd, 0xd8, 0x2b, 0xbe, 
  0x9a, 0x88, 0x4a, 0x3d, 0x80, 0x5e, 0x4a, 0x3e, 0x35, 0x58, 0xf5, 0x3e, 
  0xde, 0x6e, 0xe5, 0x3e, 0x2f, 0x8b, 0xdb, 0x3d, 0x70, 0x3d, 0x5f, 0x3e, 
  0xa6, 0x01, 0x36, 0x3e, 0xd2, 0x18, 0x8c, 0x3e, 0x57, 0x95, 0x61, 0x3d, 
  0xa2, 0x86, 0xce, 0x3e, 0xac, 0xdb, 0x96, 0xbd, 0xf0, 0x8d, 0x6f, 0x3e, 
  0x3a, 0x1c, 0x89, 0x3e, 0x8d, 0x37, 0x8a, 0xbe, 0xf1, 0x43, 0x77, 0x3e, 
  0x1e, 0x77, 0xc4, 0x3e, 0xbf, 0x3f, 0x7f, 0x3e, 0x30, 0x58, 0x88, 0x3e, 
  0xa8, 0xf1, 0xee, 0xbc, 0xe4, 0xfd, 0x66, 0x3e, 0x50, 0xe2, 0x32, 0xbe, 
  0xb1, 0x6a, 0xa8, 0x3e, 0x75, 0x7d, 0x2d, 0xbe, 0xc9, 0x56, 0x72, 0x3e, 
  0x01, 0x90, 0xdc, 0x3e, 0xda, 0x99, 0x2e, 0xbe, 0x29, 0x3c, 0x8d, 0x3e, 
  0x2b, 0x5e, 0x9e, 0x3e, 0x7c, 0xfb, 0x15, 0x3f, 0x12, 0x50, 0x58, 0x3e, 
  0x33, 0x54, 0x07, 0x3f, 0xc0, 0xf4, 0x6e, 0x3d, 0xeb, 0x76, 0x4e, 0xbd, 
  0x7b, 0xe5, 0x73, 0x3e, 0x43, 0xe5, 0xb9, 0x3e, 0xef, 0x65, 0xf9, 0x3e, 
  0x17, 0x46, 0x97, 0x3e, 0x58, 0xab, 0xdc, 0x3e, 0x0c, 0xe7, 0xe3, 0x3d, 
  0xaf, 0x64, 0xa9, 0x3d, 0xc8, 0xa0, 0xf5, 0x3e, 0x63, 0xe9, 0xb6, 0xbd, 
  0x8c, 0xb0, 0xb0, 0x3e, 0x77, 0xb8, 0x4b, 0x3e, 0xfe, 0x77, 0x65, 0xbe, 
  0xb8, 0x19, 0x80, 0x3e, 0x1f, 0xbe, 0x82, 0x3d, 0xf3, 0xce, 0x68, 0x3e, 
  0xb8, 0xa3, 0x79, 0x3e, 0x6c, 0x3d, 0xdf, 0x3e, 0x64, 0x5b, 0x62, 0xbe, 
  0x27, 0x64, 0xa2, 0xbd, 0xa5, 0xaf, 0xb1, 0x3e, 0x4b, 0x90, 0x33, 0x3e, 
  0x65, 0xfe, 0x92, 0xbe, 0xd4, 0xc3, 0xe3, 0x3d, 0xf4, 0x28, 0x3c, 0x3e, 
  0xea, 0x07, 0xfb, 0xbc, 0xc2, 0xf5, 0xe0, 0xbd, 0x85, 0xd1, 0x93, 0x3e, 
  0x39, 0xb2, 0x66, 0x3e, 0xe9, 0x45, 0x1f, 0xbb, 0xd6, 0xaa, 0x7c, 0xbe, 
  0x1e, 0x4b, 0x24, 0x3e, 0xc8, 0xef, 0xeb, 0x3e, 0xd3, 0xc5, 0xc7, 0x3e, 
  0x18, 0xa5, 0x9c, 0x3e, 0x62, 0x46, 0xa3, 0x3e, 0xb1, 0x29, 0xa8, 0xbd, 
  0x1d, 0x3e, 0xb2, 0x3e, 0x9b, 0x73, 0x8c, 0x3e, 0xd0, 0x85, 0xcd, 0x3d, 
  0x7b, 0xe7, 0x72, 0x3e, 0x44, 0x83, 0x27, 0x3e, 0x0b, 0xf0, 0x56, 0xbe, 
  0x47, 0xfb, 0xed, 0x3e, 0x0a, 0xf9, 0xd3, 0x3e, 0xd4, 0x99, 0xd0, 0x3e, 
  0x9e, 0x45, 0xab, 0x3e, 0x04, 0x25, 0x80, 0x3e, 0xe4, 0x7f, 0x4c, 0xbb, 
  0xa3, 0x9d, 0x25, 0x3e, 0xaa, 0x7d, 0x20, 0xbe, 0x75, 0x54, 0x21, 0xbe, 
  0xa5, 0x9d, 0x1e, 0x3e, 0x08, 0x93, 0x9c, 0xbd, 0x27, 0x57, 0x7f, 0xbe, 
  0x8e, 0x83, 0xd9, 0xbe, 0xda, 0x74, 0xf2, 0x3c, 0xf0, 0x73, 0x69, 0x3e, 
  0xd3, 0x30, 0xcc, 0xbe, 0x20, 0x80, 0x5f, 0x3e, 0x53, 0xbe, 0xf6, 0x3d, 
  0xbb, 0x6f, 0x80, 0x3e, 0xf0, 0x92, 0x2e, 0x3e, 0xc1, 0xf7, 0xe3, 0xbe, 
  0xcc, 0x9f, 0xd0, 0xbe, 0x7a, 0xae, 0x19, 0xbe, 0xae, 0x62, 0x08, 0x3e, 
  0xcd, 0xa6, 0x3b, 0x3e, 0x55, 0x16, 0x42, 0xbe, 0x8b, 0xa3, 0x68, 0x3e, 
  0x3d, 0x10, 0xdd, 0x3e, 0x8a, 0x5a, 0x20, 0x3e, 0xeb, 0x8c, 0xd7, 0x3e, 
  0x6d, 0x23, 0x1a, 0xbe, 0xc2, 0x43, 0x5c, 0xbd, 0xb9, 0xa5, 0xee, 0x3e, 
  0x1b, 0x29, 0x09, 0xbe, 0xfe, 0xc5, 0x99, 0xbd, 0x1a, 0xdb, 0x69, 0x3e, 
  0x9a, 0x2b, 0xaa, 0xbd, 0x6c, 0xe6, 0x04, 0xbe, 0xc9, 0x7e, 0x27, 0x3e, 
  0x43, 0xca, 0xb1, 0x3d, 0x4a, 0x19, 0x3a, 0x3e, 0x8f, 0xc7, 0x3a, 0x3f, 
  0x9e, 0xcc, 0x8d, 0xbe, 0x3c, 0x62, 0x4c, 0xbe, 0x5d, 0x0c, 0xdc, 0xbd, 
  0x59, 0xaf, 0x78, 0xbd, 0xcc, 0x3e, 0xed, 0xbd, 0x6a, 0xca, 0x3b, 0xbe, 
  0x8d, 0x7d, 0x0c, 0xbe, 0x3f, 0xf4, 0x97, 0xbe, 0x80, 0x29, 0x5b, 0xbe, 
  0x80, 0xa1, 0x11, 0x3e, 0x7b, 0xdf, 0xf6, 0x3c, 0x0d, 0x4f, 0x09, 0xbb, 
  0x50, 0x3e, 0x20, 0x3e, 0xaa, 0x57, 0x10, 0x3e, 0x71, 0xe1, 0x79, 0xbe, 
  0x8e, 0xec, 0xfb, 0x3d, 0x02, 0x44, 0xf4, 0x3d, 0x90, 0x81, 0x87, 0xbe, 
  0x14, 0x83, 0xca, 0x3e, 0x9b, 0x82, 0x21, 0x3e, 0xa6, 0xce, 0x00, 0xbd, 
  0xb8, 0x76, 0xd2, 0x3e, 0xf3, 0x5a, 0x00, 0x3f, 0x6e, 0x99, 0x9a, 0x3e, 
  0x92, 0xf0, 0xc2, 0x3e, 0x9b, 0xaf, 0x61, 0x3e, 0xb4, 0x7e, 0xab, 0xbe, 
  0x44, 0xcc, 0x8e, 0x3d, 0x2b, 0x9c, 0x8f, 0xbc, 0x0a, 0xd1, 0x02, 0x3f, 
  0x4d, 0x4f, 0x87, 0x3d, 0xb7, 0x9e, 0xaa, 0x3e, 0x0b, 0x9c, 0xe3, 0xbd, 
  0x94, 0xc4, 0xaf, 0x3e, 0x72, 0x4c, 0xd5, 0xbd, 0x56, 0xe4, 0xca, 0x3e, 
  0xc1, 0x10, 0xb9, 0x3e, 0x43, 0x68, 0x8e, 0x3d, 0x7d, 0x26, 0xa7, 0x3e, 
  0xc4, 0xf1, 0x13, 0xbe, 0x4e, 0x02, 0x97, 0xbe, 0x58, 0xf2, 0xca, 0x3e, 
  0xf5, 0x60, 0xb2, 0x3e, 0x9e, 0x92, 0xd2, 0x3e, 0xe1, 0x81, 0x74, 0xbe, 
  0xbf, 0xb9, 0xf3, 0x3e, 0x7b, 0x71, 0x44, 0x3e, 0xf9, 0xf0, 0x0f, 0x3f, 
  0x89, 0x5a, 0xe0, 0x3e, 0xe8, 0xbb, 0x95, 0x3e, 0x25, 0x03, 0x37, 0x3e, 
  0x8d, 0xc1, 0xe5, 0x3d, 0xce, 0xf2, 0x9f, 0x3d, 0x7f, 0xdf, 0x3d, 0x3e, 
  0x2b, 0xd3, 0xbc, 0x3d, 0x1a, 0x93, 0xd2, 0x3e, 0xa9, 0x82, 0xe9, 0x3e, 
  0xc5, 0x5c, 0xf7, 0xbd, 0x75, 0xf4, 0x62, 0x3e, 0xfd, 0xfe, 0xb4, 0x3d, 
  0xcf, 0x53, 0xdf, 0x3c, 0x7a, 0x10, 0x1e, 0x3f, 0xbf, 0x1a, 0xa0, 0x3e, 
  0x0c, 0xda, 0xb1, 0x3d, 0x80, 0xcd, 0xe3, 0x3c, 0x8d, 0x1e, 0x9b, 0x3e, 
  0x72, 0x11, 0x69, 0x3e, 0x40, 0x03, 0x44, 0x3e, 0x1f, 0xc7, 0x76, 0x3c, 
  0xd0, 0xb8, 0x8c, 0x3e, 0xf1, 0x14, 0xdc, 0x3c, 0x61, 0x05, 0xda, 0xbd, 
  0x3a, 0xcd, 0x92, 0xbe, 0xd2, 0xfa, 0x49, 0x3e, 0xb6, 0x09, 0xcc, 0xbe, 
  0x2d, 0xa0, 0xc4, 0xbd, 0x1e, 0xab, 0xf2, 0xbd, 0x1b, 0x73, 0xa3, 0x3c, 
  0x3e, 0x9b, 0x58, 0x3d, 0x6f, 0x8a, 0x2b, 0xbd, 0xa9, 0xa4, 0x8b, 0xbe, 
  0x3a, 0xe7, 0xff, 0xff, 0x04, 0x00, 0x00, 0x00, 0x20, 0x01, 0x00, 0x00, 
  0xfc, 0x44, 0xa3, 0x3e, 0xe3, 0xde, 0x86, 0x3e, 0xec, 0x98, 0x83, 0x3e, 
  0xf5, 0xc4, 0x83, 0x3e, 0xfe, 0xa2, 0x89, 0x3e, 0x87, 0xea, 0x78, 0x3e, 
  0x12, 0x19, 0x94, 0x3e, 0x6a, 0x89, 0x7f, 0x3e, 0x48, 0x05, 0xed, 0xbe, 
  0x67, 0xf8, 0x8a, 0x3e, 0xee, 0x69, 0xa2, 0x3e, 0x6f, 0x35, 0x5a, 0x3e, 
  0x92, 0xc6, 0x8a, 0x3e, 0xc8, 0xc8, 0x1a, 0x3e, 0xe0, 0x62, 0xa5, 0x3e, 
  0xbc, 0xab, 0x92, 0x3e, 0x8d, 0x12, 0xbb, 0x3e, 0x30, 0x21, 0x5d, 0x3d, 
  0x84, 0x05, 0x07, 0x3f, 0x23, 0xb7, 0xed, 0xbd, 0x9f, 0x12, 0xa4, 0x3e, 
  0x84, 0xb0, 0x6b, 0x3e, 0xb5, 0x84, 0x4b, 0x3e, 0x35, 0xb9, 0xc0, 0xbe, 
  0x33, 0x86, 0xac, 0x3e, 0x9d, 0xb0, 0x8b, 0x3e, 0x52, 0x59, 0x89, 0x3e, 
  0x51, 0x99, 0x97, 0x3e, 0xc2, 0xcb, 0x8e, 0x3e, 0x45, 0x9b, 0x45, 0xbe, 
  0x83, 0xb6, 0x5a, 0x3e, 0xa6, 0xaa, 0x84, 0x3e, 0x61, 0xc0, 0xe3, 0x3b, 
  0xa0, 0x17, 0xbf, 0xbe, 0x7f, 0xed, 0xa1, 0x3e, 0xa1, 0x64, 0x63, 0x3e, 
  0x22, 0x67, 0x9b, 0x3e, 0xc9, 0x39, 0x20, 0x3e, 0x51, 0x33, 0xc1, 0x3e, 
  0xa8, 0x84, 0x72, 0x3e, 0x95, 0x15, 0xda, 0x3e, 0xc4, 0xfe, 0x96, 0xbe, 
  0x1f, 0xe4, 0x8c, 0x3e, 0xa3, 0xbe, 0xbc, 0x3d, 0x00, 0x1a, 0xac, 0x3e, 
  0xee, 0x72, 0x70, 0x3e, 0xff, 0x5d, 0x55, 0x3e, 0x73, 0xdb, 0x8f, 0xbe, 
  0x75, 0x3b, 0xa4, 0x3e, 0x6c, 0x4c, 0x87, 0x3e, 0x14, 0xdf, 0x83, 0x3e, 
  0x5c, 0xbb, 0x87, 0x3e, 0x25, 0xd1, 0x89, 0x3e, 0x8f, 0x9d, 0x89, 0xbe, 
  0xf4, 0x3d, 0x9a, 0x3e, 0x28, 0x9e, 0x7f, 0x3e, 0xfd, 0x6c, 0x54, 0xbe, 
  0x90, 0x9c, 0xd6, 0xbe, 0x02, 0x22, 0xa4, 0x3e, 0x9e, 0x7b, 0x5a, 0x3e, 
  0x55, 0x11, 0x8a, 0x3e, 0x6e, 0x56, 0x1b, 0x3e, 0x8e, 0x88, 0x95, 0x3e, 
  0x7c, 0x82, 0x91, 0x3e, 0x51, 0xc1, 0xc1, 0x3e, 0x31, 0x9f, 0x99, 0x3e, 
  0xae, 0xa5, 0x05, 0x3f, 0xe2, 0x55, 0xb3, 0xbe, 0x01, 0xa8, 0xa2, 0x3e, 
  0xda, 0xee, 0x6b, 0x3e, 0xae, 0x60, 0x4b, 0x3e, 0x3b, 0x36, 0x15, 0x3e, 
  0x66, 0xe8, 0xff, 0xff, 0x04, 0x00, 0x00, 0x00, 0x80, 0x04, 0x00, 0x00, 
  0x5c, 0xac, 0x6b, 0xbe, 0x39, 0xce, 0x55, 0x3e, 0xb2, 0x53, 0xaa, 0x3c, 
  0xf8, 0x8b, 0xb3, 0xbc, 0xc9, 0x57, 0x6b, 0x3e, 0x72, 0x70, 0xa2, 0x3d, 
  0x16, 0x08, 0xa0, 0x3d, 0x63, 0x24, 0x44, 0x3e, 0x7b, 0x90, 0x5a, 0x3e, 
  0x66, 0x2c, 0xa9, 0xbc, 0x0e, 0x24, 0xcc, 0x3c, 0x15, 0x1a, 0x35, 0xbe, 
  0x4f, 0x40, 0x6a, 0x3e, 0x5b, 0xff, 0x35, 0x3d, 0x24, 0xca, 0xc0, 0xbd, 
  0x31, 0xb2, 0x2b, 0x3d, 0x2e, 0x9a, 0x58, 0x3e, 0x8a, 0x13, 0xc2, 0xbc, 
  0xec, 0x80, 0xcb, 0xbd, 0xf4, 0xcd, 0x33, 0xbc, 0x59, 0x62, 0xc1, 0xbd, 
  0xb9, 0x51, 0x5e, 0x3e, 0xc6, 0xfe, 0x42, 0x3e, 0x0e, 0x9d, 0x3a, 0x3d, 
  0x41, 0xad, 0x66, 0x3d, 0x6e, 0xb6, 0xc0, 0xbb, 0x11, 0x42, 0x95, 0x3d, 
  0x2a, 0x50, 0x7d, 0xbe, 0x4e, 0x3a, 0x26, 0xbe, 0xf8, 0x0e, 0xc6, 0x3d, 
  0x38, 0xac, 0x96, 0x3d, 0x2d, 0xa4, 0x33, 0x3e, 0xaf, 0x12, 0x94, 0xbd, 
  0xe7, 0x05, 0x76, 0xbe, 0xd2, 0x24, 0x22, 0x3e, 0xd1, 0x5b, 0x62, 0x3e, 
  0x2c, 0x5b, 0x10, 0xbd, 0x3d, 0x41, 0x7b, 0xbe, 0x1d, 0xa5, 0x4b, 0xbe, 
  0xd5, 0xc5, 0x37, 0x3e, 0x62, 0x6a, 0x35, 0x3e, 0x7f, 0x1a, 0xe7, 0x3d, 
  0x51, 0x80, 0x46, 0x3e, 0xfb, 0x0c, 0x26, 0xbe, 0x07, 0x38, 0x05, 0xbe, 
  0xc1, 0x2a, 0xd6, 0x3d, 0xca, 0xac, 0x51, 0x3c, 0xa1, 0x1c, 0x7b, 0xbd, 
  0xf1, 0x8d, 0x19, 0xbd, 0xe7, 0x22, 0x4f, 0xbe, 0xf6, 0x26, 0x03, 0xbd, 
  0xeb, 0xbe, 0x25, 0xbc, 0xf9, 0x85, 0x39, 0xbe, 0x64, 0x9d, 0x36, 0x3c, 
  0x06, 0x3a, 0x10, 0xbe, 0x6d, 0xda, 0x9b, 0xbd, 0x7e, 0x57, 0xbb, 0x3d, 
  0xc8, 0x92, 0x15, 0xbe, 0x30, 0x9a, 0x36, 0x3d, 0x0d, 0xb1, 0xcd, 0x3d, 
  0xce, 0x26, 0xda, 0x3d, 0x00, 0x81, 0x1c, 0xbe, 0xfe, 0xae, 0xeb, 0xbd, 
  0x72, 0x2f, 0xea, 0xbb, 0x35, 0xad, 0xb0, 0xbc, 0xa2, 0x99, 0xd3, 0x3d, 
  0x2e, 0xf6, 0xd4, 0x3d, 0xec, 0x6e, 0x5e, 0xbe, 0xe6, 0x58, 0x60, 0xbd, 
  0x77, 0xe8, 0x39, 0x3e, 0x09, 0x97, 0x2a, 0x3e, 0xc3, 0xdb, 0x60, 0x3e, 
  0xe7, 0x0f, 0x15, 0x3e, 0xde, 0x90, 0xf3, 0xbd, 0x6c, 0x94, 0xec, 0x3d, 
  0x90, 0x2c, 0x3e, 0x3e, 0x4a, 0x91, 0x05, 0x3e, 0xcc, 0x79, 0xac, 0xbd, 
  0x28, 0xa0, 0x70, 0x3d, 0xc1, 0x03, 0x70, 0x3e, 0xae, 0x30, 0x80, 0x3e, 
  0x00, 0xf4, 0xa6, 0x3d, 0x9f, 0x5a, 0x2a, 0x3e, 0xff, 0x96, 0x7d, 0x3c, 
  0xd6, 0xe4, 0x1d, 0xbe, 0x13, 0x45, 0x75, 0xbe, 0x4b, 0xca, 0x8e, 0xbe, 
  0xae, 0x32, 0x46, 0x3e, 0x75, 0x90, 0x01, 0x3e, 0xd3, 0x72, 0x21, 0xbe, 
  0xe5, 0x1b, 0x02, 0x3e, 0xd5, 0x0c, 0xb5, 0xbd, 0x06, 0x22, 0x02, 0x3e, 
  0x59, 0x27, 0x85, 0x3e, 0xb5, 0x18, 0x29, 0xbc, 0xfa, 0x7e, 0xd1, 0xbd, 
  0x11, 0x74, 0x27, 0xbe, 0x6b, 0x39, 0x71, 0x3e, 0x51, 0x72, 0xe7, 0x3d, 
  0x23, 0xf2, 0x96, 0xbd, 0x80, 0xfc, 0xd9, 0x3d, 0xc1, 0xbd, 0xc0, 0xbd, 
  0xa8, 0xda, 0x1e, 0xbe, 0x98, 0x40, 0x35, 0xbe, 0x83, 0xa7, 0x0d, 0x3e, 
  0x8f, 0x7e, 0x8c, 0xbc, 0x8f, 0x39, 0x86, 0xbd, 0x88, 0x5a, 0x5c, 0xbe, 
  0x8d, 0xb7, 0x7c, 0xbc, 0xb9, 0xe7, 0x8f, 0x3b, 0xd7, 0xb9, 0xfd, 0x3d, 
  0x6a, 0x13, 0x58, 0x3e, 0x08, 0xf7, 0xbb, 0xbc, 0x0a, 0xdb, 0x61, 0xbe, 
  0x73, 0x32, 0xe3, 0xbd, 0x90, 0x31, 0x0e, 0xbe, 0x3c, 0xc0, 0x18, 0xbe, 
  0x12, 0xca, 0x5e, 0x3e, 0x95, 0xb5, 0x5a, 0x3e, 0x1d, 0x83, 0x89, 0xbd, 
  0x55, 0x21, 0x99, 0x3e, 0x47, 0x5e, 0x31, 0x3d, 0xd0, 0x2b, 0x22, 0x3e, 
  0xdc, 0xb2, 0x68, 0x3c, 0xb9, 0x60, 0x04, 0xbe, 0xae, 0xac, 0xbc, 0x3c, 
  0x16, 0x6c, 0x24, 0xbe, 0x54, 0x6e, 0x72, 0x3d, 0xa1, 0xfa, 0x09, 0xbe, 
  0x75, 0x9d, 0xdf, 0xbd, 0x54, 0xb8, 0x86, 0xbd, 0x0b, 0x21, 0x36, 0xbe, 
  0x08, 0x3d, 0xf8, 0xbc, 0x4d, 0xda, 0xa3, 0x3c, 0x89, 0x02, 0xe6, 0xbd, 
  0x77, 0x5e, 0x01, 0xbe, 0x1e, 0x6b, 0x26, 0x3e, 0x55, 0x49, 0x6e, 0x3e, 
  0xf4, 0xc6, 0x5a, 0x3e, 0x95, 0x43, 0x1b, 0x3e, 0xbd, 0xcd, 0x6c, 0xbe, 
  0xf2, 0xf9, 0x37, 0xbe, 0x8f, 0xa0, 0xf8, 0x3d, 0x96, 0x0b, 0x9f, 0xbd, 
  0x9e, 0xdf, 0x03, 0xbe, 0xad, 0xdd, 0x06, 0xbc, 0x79, 0xe9, 0x08, 0xbe, 
  0x36, 0x0a, 0x8f, 0x3d, 0x79, 0x0a, 0x09, 0x3e, 0x91, 0x62, 0x0b, 0x3e, 
  0x4a, 0x6d, 0xf8, 0xbc, 0x74, 0xdb, 0x21, 0x3e, 0xab, 0xf9, 0x81, 0x3e, 
  0x84, 0x19, 0x23, 0xbd, 0xc1, 0x6b, 0x65, 0x3d, 0x82, 0xac, 0x5b, 0xbe, 
  0x9e, 0x74, 0x4d, 0x3e, 0x6a, 0x7a, 0x37, 0x3e, 0xf0, 0x1d, 0x04, 0xbe, 
  0x8b, 0xaf, 0x47, 0x3b, 0xf5, 0x0a, 0xaa, 0xbd, 0x9f, 0xbe, 0x79, 0xbe, 
  0x20, 0xd5, 0xe3, 0xbd, 0xf0, 0xc4, 0x16, 0x3e, 0x92, 0x55, 0x39, 0x3e, 
  0x74, 0x0a, 0x01, 0xbe, 0x62, 0xaa, 0x39, 0xbe, 0x53, 0x69, 0x17, 0xbe, 
  0x42, 0x87, 0x84, 0x3e, 0xc4, 0x54, 0x41, 0x39, 0x9d, 0x68, 0x83, 0xbe, 
  0xf1, 0x81, 0xd1, 0xbd, 0x2c, 0x57, 0xe9, 0x3c, 0xec, 0x01, 0x3b, 0x3e, 
  0x1d, 0x70, 0xfb, 0xbd, 0xdf, 0x20, 0x97, 0xbd, 0xde, 0xdb, 0x1f, 0xbe, 
  0x2a, 0x62, 0x6d, 0xbe, 0xab, 0xcb, 0x80, 0x3e, 0x15, 0x4d, 0x3c, 0x3e, 
  0xe1, 0x6d, 0xd9, 0xbd, 0x71, 0x81, 0x23, 0x3e, 0xee, 0xd9, 0x5b, 0x3e, 
  0x1b, 0x5d, 0xff, 0xbd, 0x1f, 0x2f, 0x82, 0x3e, 0x9d, 0x0e, 0x7d, 0x3e, 
  0xe8, 0x21, 0x22, 0xbe, 0x4e, 0xa9, 0xb0, 0x3d, 0x28, 0x05, 0x61, 0xbe, 
  0x6a, 0xcb, 0x97, 0x3e, 0xb1, 0x96, 0x3e, 0x3e, 0x9b, 0xf3, 0x14, 0x3e, 
  0x70, 0xd6, 0x2e, 0xbe, 0x77, 0xc7, 0x88, 0x3c, 0xf0, 0xa8, 0x1b, 0xbe, 
  0x57, 0xad, 0x34, 0x3e, 0x0c, 0x8f, 0x0c, 0x3e, 0xb0, 0xe3, 0x99, 0x3d, 
  0xfd, 0xbf, 0xd0, 0xbc, 0x3a, 0xc4, 0xc1, 0xbd, 0x21, 0x2f, 0xb6, 0x3d, 
  0x8d, 0xca, 0x65, 0xbd, 0xdb, 0x3d, 0x18, 0x3e, 0xe0, 0xa5, 0x29, 0xbe, 
  0x48, 0xa0, 0x00, 0x3d, 0x72, 0x79, 0x46, 0xbe, 0x1b, 0xd7, 0x24, 0xbe, 
  0xe3, 0x9f, 0xa0, 0xbd, 0x49, 0x31, 0x5a, 0xbe, 0x7b, 0xf2, 0x06, 0x3c, 
  0xea, 0x24, 0x4c, 0xbe, 0xfd, 0x01, 0x79, 0x3e, 0x96, 0x98, 0x6a, 0x3e, 
  0xd6, 0x8f, 0x8a, 0xba, 0xc3, 0xee, 0x54, 0x3e, 0x0c, 0xfd, 0x2a, 0xbe, 
  0x59, 0x98, 0x2d, 0x3e, 0xff, 0xdc, 0x00, 0xbd, 0xee, 0x59, 0xd0, 0xbd, 
  0x53, 0x1d, 0x65, 0xbe, 0xee, 0xd6, 0xa1, 0xbd, 0xff, 0xd0, 0xca, 0x3d, 
  0x0b, 0xd3, 0x8b, 0x3d, 0xb6, 0xb7, 0xdd, 0x3d, 0x35, 0x93, 0xc7, 0xbc, 
  0x2a, 0xc9, 0x38, 0xbe, 0xb1, 0xf7, 0x93, 0xbd, 0x19, 0xc0, 0x00, 0x3e, 
  0x03, 0xe5, 0xf5, 0x3c, 0x4f, 0x65, 0x06, 0x3c, 0x06, 0x97, 0x7f, 0xbe, 
  0xf3, 0x2c, 0x37, 0xbe, 0x83, 0xf1, 0x07, 0x3e, 0xac, 0xe3, 0x2d, 0x3c, 
  0xb3, 0x2b, 0x60, 0x3e, 0x22, 0xe9, 0x25, 0x3d, 0x09, 0x54, 0x60, 0x3c, 
  0x57, 0x38, 0xb1, 0x3d, 0xe9, 0x68, 0x6e, 0x3d, 0x51, 0xa6, 0x1e, 0x3e, 
  0x51, 0x3b, 0x14, 0xbe, 0xe0, 0x82, 0xa6, 0xbc, 0xb6, 0x61, 0xb1, 0x3d, 
  0xf5, 0xab, 0x6d, 0xbd, 0x00, 0x71, 0x5a, 0x3e, 0xb5, 0x97, 0x5a, 0x3e, 
  0xac, 0x6e, 0x5c, 0x3e, 0x4e, 0x8a, 0x04, 0x3c, 0xd4, 0xa1, 0x23, 0xbe, 
  0x4a, 0x85, 0xe8, 0x3b, 0x9e, 0x2e, 0x3f, 0x3d, 0xe8, 0xba, 0x46, 0x3d, 
  0x6b, 0x12, 0x37, 0x3c, 0x05, 0x3e, 0x10, 0x3e, 0xa3, 0x20, 0x05, 0x3e, 
  0x34, 0x99, 0xdc, 0x3d, 0xbc, 0xdb, 0xab, 0xbd, 0xc8, 0x21, 0x8d, 0xbb, 
  0x53, 0x1a, 0xdb, 0x3d, 0x45, 0xe5, 0x89, 0x3c, 0x94, 0x30, 0x9e, 0x3e, 
  0xe2, 0xaf, 0x01, 0x3e, 0xa8, 0xae, 0xd6, 0xbd, 0xcc, 0xdc, 0xeb, 0xbd, 
  0x66, 0x40, 0x1e, 0x3e, 0x40, 0xc5, 0x83, 0xbe, 0x87, 0x39, 0x6f, 0x3c, 
  0x68, 0x4c, 0x15, 0x3c, 0x93, 0x9e, 0x8c, 0xbd, 0xe5, 0xd1, 0x0b, 0x3e, 
  0x82, 0xfd, 0x78, 0xbe, 0x7a, 0x2a, 0x5b, 0x3d, 0xb2, 0x64, 0x0c, 0x3e, 
  0xc9, 0x60, 0x0d, 0xbe, 0xfd, 0x83, 0x79, 0xbd, 0x9b, 0xfd, 0x97, 0x3d, 
  0x8e, 0xec, 0x95, 0x3e, 0xd2, 0xab, 0xec, 0x3d, 0x40, 0x63, 0x31, 0x3e, 
  0x86, 0x78, 0xab, 0xbd, 0x18, 0x5e, 0xba, 0xbd, 0xed, 0x2c, 0x80, 0xbd, 
  0x3e, 0x33, 0x3a, 0xbd, 0xd4, 0x63, 0xcf, 0x3d, 0xf1, 0x78, 0x14, 0xbe, 
  0x0c, 0x42, 0x95, 0xbd, 0xc1, 0xf6, 0xdd, 0xbd, 0x34, 0x9f, 0x31, 0x3d, 
  0xf2, 0xec, 0xff, 0xff, 0x04, 0x00, 0x00, 0x00, 0x00, 0x12, 0x00, 0x00, 
  0x75, 0x96, 0x1b, 0xbb, 0x7f, 0x96, 0x09, 0xbd, 0x6c, 0x30, 0xae, 0x3d, 
  0x04, 0xd2, 0x7b, 0x3e, 0x8e, 0x11, 0xb2, 0xbd, 0x59, 0x9f, 0x3f, 0x3e, 
  0x1b, 0x4f, 0x03, 0x3e, 0x54, 0x37, 0x32, 0xbd, 0xa3, 0xfd, 0x01, 0xbe, 
  0x40, 0xf8, 0x49, 0x3e, 0x96, 0x50, 0xb2, 0x3d, 0x3e, 0xfb, 0x37, 0x3c, 
  0xff, 0xed, 0xd0, 0xbd, 0x1f, 0xf0, 0x09, 0x3d, 0x33, 0x2e, 0xdd, 0xbd, 
  0x94, 0x27, 0xe8, 0x3d, 0xc5, 0xba, 0x4a, 0x3e, 0xbb, 0x2b, 0x08, 0xbe, 
  0xf3, 0xe0, 0x0b, 0x3e, 0x02, 0xdd, 0xcb, 0xbd, 0xdf, 0xb3, 0xeb, 0x3d, 
  0x7a, 0x01, 0x06, 0xbe, 0x1a, 0x2e, 0x84, 0x3c, 0x33, 0x9a, 0x1c, 0x3e, 
  0x8d, 0x16, 0x89, 0xbd, 0xa5, 0xf1, 0x84, 0x3e, 0xad, 0x0d, 0x10, 0xbe, 
  0xf4, 0x3f, 0x38, 0x3e, 0xbb, 0xf5, 0x84, 0x3d, 0x9e, 0x7a, 0xff, 0xbd, 
  0x79, 0xcb, 0x82, 0xbd, 0xea, 0xd5, 0x57, 0xbb, 0xa4, 0x9a, 0x59, 0x3e, 
  0xd8, 0xfa, 0xf3, 0xbd, 0x43, 0xec, 0xb9, 0x3d, 0x9b, 0x3e, 0x71, 0x3d, 
  0xae, 0xb4, 0x43, 0x3e, 0x16, 0x6c, 0x61, 0x3c, 0xc6, 0x0d, 0x0d, 0xbe, 
  0x4e, 0xca, 0x86, 0xbd, 0x02, 0x31, 0x13, 0x3e, 0x8a, 0x15, 0xfb, 0x3d, 
  0x29, 0x87, 0xfc, 0xbd, 0x63, 0xfc, 0x07, 0x3e, 0xaa, 0x86, 0x63, 0xbc, 
  0xaa, 0x18, 0x3e, 0x3e, 0xe1, 0x19, 0xc1, 0xbc, 0x20, 0x0e, 0x2c, 0x3e, 
  0x83, 0x73, 0x1c, 0xbd, 0x5f, 0x9a, 0x0c, 0x3d, 0xda, 0x9d, 0x1d, 0xbd, 
  0xa9, 0xc6, 0x99, 0x3b, 0x33, 0x5d, 0x9b, 0x3d, 0x69, 0xb2, 0x9c, 0x3d, 
  0x5c, 0x36, 0x80, 0x3e, 0xea, 0xdc, 0x87, 0x3c, 0x72, 0x7a, 0x7c, 0x3e, 
  0x16, 0x43, 0x38, 0x3e, 0xa1, 0xa4, 0x60, 0x3e, 0x40, 0x66, 0xad, 0x3d, 
  0x46, 0xba, 0xcb, 0x3d, 0x32, 0x83, 0x8f, 0x3e, 0x07, 0x6c, 0x81, 0x3c, 
  0x02, 0x4c, 0x12, 0x3e, 0x02, 0x72, 0xfe, 0xbc, 0xc5, 0x24, 0xb6, 0x3d, 
  0x83, 0x27, 0x37, 0x3c, 0xed, 0x95, 0x9b, 0x3d, 0x27, 0xa0, 0xb7, 0x3d, 
  0xd9, 0x87, 0xd8, 0x3c, 0xa6, 0x15, 0x10, 0x3e, 0x38, 0x8c, 0x95, 0x3e, 
  0xf7, 0xb3, 0xb2, 0xbc, 0x40, 0x29, 0x08, 0x3e, 0xc3, 0x69, 0xd1, 0xbd, 
  0x9f, 0xe9, 0x47, 0x3d, 0xf6, 0x02, 0x36, 0x3e, 0x99, 0x25, 0x55, 0x3e, 
  0x6b, 0x87, 0xe8, 0xbd, 0x8d, 0x5e, 0x2e, 0xbe, 0xa4, 0x63, 0x0b, 0x3e, 
  0x88, 0x4d, 0xd1, 0xbd, 0xcb, 0x59, 0x5a, 0x3e, 0xb5, 0xb9, 0xc3, 0x3b, 
  0x6b, 0xe8, 0xb2, 0x3b, 0x15, 0x0e, 0xbb, 0x3d, 0x9e, 0x7f, 0x89, 0x3e, 
  0x94, 0x72, 0x21, 0xbe, 0xc1, 0x18, 0x3a, 0x3e, 0x33, 0xac, 0x8f, 0x3d, 
  0x68, 0xc4, 0x1a, 0x3e, 0xee, 0x96, 0xd7, 0xbd, 0xa6, 0xf7, 0xbc, 0xbd, 
  0x6b, 0x35, 0x82, 0x3d, 0xed, 0x65, 0x83, 0x3d, 0xc6, 0x2a, 0x1f, 0xbe, 
  0x1e, 0x77, 0xc0, 0x3d, 0x8e, 0xd9, 0x97, 0xbd, 0xc6, 0xd2, 0x61, 0x3d, 
  0x44, 0xb1, 0x8c, 0x3c, 0xb0, 0x63, 0x5c, 0x3a, 0x3b, 0x3d, 0x4c, 0xbe, 
  0xe7, 0x0a, 0x53, 0xbe, 0xf0, 0xdc, 0x3e, 0x3d, 0x55, 0x3b, 0xdd, 0xbd, 
  0x7d, 0x0f, 0x99, 0xbd, 0xc8, 0x36, 0x7e, 0xbd, 0x06, 0x9d, 0x50, 0x3e, 
  0xae, 0x33, 0x93, 0xbd, 0xa4, 0xb0, 0xc3, 0xbd, 0xe6, 0xcc, 0x18, 0x3b, 
  0xa2, 0xc1, 0x82, 0x3d, 0xd2, 0x71, 0x6a, 0x39, 0x1a, 0x20, 0x9b, 0x3c, 
  0xf3, 0x6f, 0x89, 0x3d, 0x5a, 0x57, 0xb1, 0x3c, 0x24, 0xd8, 0x12, 0x3e, 
  0x5d, 0x1b, 0x69, 0x3e, 0x0b, 0x0d, 0x31, 0x3e, 0xb2, 0x2e, 0x2d, 0xbe, 
  0x67, 0x7c, 0xa8, 0xbd, 0x13, 0x59, 0x8f, 0x3d, 0x98, 0xc6, 0xf6, 0x3d, 
  0x05, 0x5a, 0xaa, 0xbd, 0x05, 0xdb, 0xc8, 0x3c, 0xe6, 0xee, 0xbb, 0xbd, 
  0x71, 0xbf, 0x1f, 0x3e, 0xcc, 0x12, 0x3c, 0x3e, 0xb1, 0xd0, 0x34, 0xbe, 
  0xed, 0x97, 0x76, 0x3c, 0xe8, 0x73, 0x58, 0x3e, 0x12, 0xcf, 0x73, 0x3e, 
  0xaf, 0x01, 0x6e, 0x3d, 0xe1, 0x2d, 0x4f, 0x3e, 0x8b, 0x38, 0x39, 0x3e, 
  0xbe, 0xd2, 0xc5, 0x3d, 0x53, 0x2e, 0x70, 0x3e, 0x14, 0x8a, 0x34, 0xbe, 
  0xd2, 0xd3, 0x00, 0xbe, 0x2e, 0x7c, 0x47, 0xbd, 0x2f, 0x25, 0xe8, 0x3d, 
  0xcb, 0x61, 0x0d, 0x3e, 0xd1, 0x2b, 0x06, 0x3e, 0x22, 0x0a, 0x7b, 0xbd, 
  0x62, 0x75, 0x66, 0x3e, 0x32, 0xe6, 0xdc, 0xbc, 0x47, 0xd9, 0x8d, 0x3e, 
  0x21, 0xb3, 0x94, 0x3d, 0xa0, 0x2c, 0xd2, 0xba, 0x59, 0x3c, 0x2b, 0x3e, 
  0xdc, 0x38, 0x65, 0x3e, 0xf6, 0xc6, 0x68, 0x3e, 0x90, 0x07, 0x7f, 0x3e, 
  0x1a, 0xf8, 0x5c, 0xbd, 0x45, 0x0f, 0x85, 0x3d, 0xbe, 0x1f, 0xc1, 0x3c, 
  0xe4, 0x04, 0xb4, 0xbd, 0xeb, 0x11, 0xb6, 0x3d, 0x39, 0xd9, 0x9e, 0xbc, 
  0xac, 0xe6, 0x12, 0x3d, 0x37, 0x56, 0x34, 0xbd, 0x40, 0xa4, 0x97, 0x3d, 
  0xa9, 0xc0, 0xb2, 0x3d, 0xc9, 0xe5, 0x80, 0xbb, 0x71, 0xe7, 0x4c, 0x3e, 
  0x90, 0xc9, 0x0a, 0x3d, 0x50, 0x65, 0xf6, 0xbd, 0xfc, 0x84, 0x1e, 0x3d, 
  0x31, 0xf1, 0x13, 0xbe, 0x48, 0x19, 0x31, 0x3e, 0x03, 0xe9, 0x57, 0x3e, 
  0x14, 0x88, 0xd5, 0xba, 0x2f, 0x8a, 0xdf, 0xbd, 0xe4, 0x34, 0x21, 0xbd, 
  0x25, 0x94, 0xbf, 0xbd, 0x96, 0x17, 0x05, 0xbe, 0x4a, 0x8e, 0xf5, 0x3d, 
  0x21, 0xbc, 0x12, 0xbe, 0x97, 0x6b, 0xba, 0x3d, 0xe6, 0x73, 0x5f, 0x3e, 
  0xb4, 0x0e, 0x52, 0x3e, 0xeb, 0x7e, 0xeb, 0xbd, 0xfa, 0x15, 0x83, 0xbb, 
  0xc5, 0x3b, 0x08, 0x3e, 0x27, 0xf8, 0xa9, 0x3d, 0x4c, 0x48, 0xa8, 0x3d, 
  0x1a, 0x55, 0x37, 0x3e, 0x00, 0x61, 0xba, 0xbd, 0x89, 0x91, 0xf0, 0xbc, 
  0x56, 0x37, 0x01, 0xbe, 0x00, 0xf0, 0x32, 0x3d, 0x58, 0x8d, 0x16, 0x3d, 
  0x85, 0xc0, 0xb4, 0x3d, 0x1e, 0xec, 0x0a, 0x3e, 0xc8, 0xde, 0x36, 0x3e, 
  0x68, 0x19, 0xdc, 0xbd, 0xbd, 0x44, 0x86, 0x3e, 0xe7, 0x47, 0x3e, 0x3e, 
  0xfa, 0x51, 0x9d, 0x3d, 0x8e, 0x2d, 0xed, 0xbd, 0x4f, 0x10, 0x12, 0xbe, 
  0x8f, 0x6f, 0xb8, 0x3d, 0xb3, 0xcc, 0xc3, 0xbc, 0xbb, 0xd3, 0x7a, 0x3e, 
  0xe7, 0xc6, 0xc7, 0xbc, 0x8d, 0x33, 0xae, 0xbd, 0x0e, 0x56, 0x3e, 0x3d, 
  0x28, 0xb1, 0x89, 0xbd, 0x80, 0x18, 0x83, 0x3e, 0x0c, 0x31, 0x0f, 0x3e, 
  0x0c, 0x45, 0xee, 0x3c, 0x1e, 0xe4, 0x7b, 0x3e, 0x31, 0x6d, 0x44, 0xbc, 
  0xa2, 0xe1, 0x22, 0xbc, 0x33, 0x6f, 0x70, 0x3c, 0x67, 0x7a, 0x05, 0x3d, 
  0x8c, 0xaf, 0x29, 0xbe, 0x89, 0x9e, 0xe2, 0xbd, 0xda, 0x75, 0xeb, 0xbd, 
  0x85, 0x94, 0xbb, 0x3d, 0x73, 0xef, 0x40, 0x3e, 0xe6, 0xe2, 0x0c, 0x3e, 
  0xee, 0xdc, 0xf7, 0xbd, 0x0e, 0x46, 0x48, 0x3e, 0x5e, 0xf8, 0x30, 0x3e, 
  0xaa, 0x58, 0x03, 0xbd, 0xbf, 0x00, 0xeb, 0xbc, 0x3f, 0x43, 0x1d, 0xbe, 
  0x5c, 0x9a, 0x07, 0x3e, 0x80, 0x78, 0x17, 0xbe, 0xd9, 0x07, 0x67, 0x3d, 
  0x21, 0x32, 0x2e, 0x3e, 0xec, 0xa9, 0x4e, 0xbe, 0x17, 0x65, 0x39, 0x3e, 
  0x89, 0x23, 0x1a, 0x3e, 0xd1, 0x7c, 0xe6, 0x3c, 0x0c, 0xf5, 0xe7, 0x3d, 
  0x69, 0xa7, 0x73, 0x3d, 0x24, 0x2e, 0x2f, 0x3e, 0x86, 0x61, 0x87, 0x3d, 
  0x4d, 0x8a, 0x1d, 0x3e, 0xf6, 0xa1, 0x53, 0xbe, 0x6a, 0x52, 0x57, 0xbc, 
  0x8d, 0x91, 0x5d, 0xbe, 0x24, 0x04, 0xac, 0x3d, 0xe3, 0x89, 0xaa, 0x3d, 
  0x53, 0x7f, 0x07, 0x3e, 0x85, 0xbd, 0x98, 0xbd, 0x80, 0x92, 0xd2, 0x3d, 
  0x30, 0xb9, 0x51, 0xbd, 0xeb, 0x15, 0x92, 0xbb, 0xb7, 0x26, 0x4c, 0xbe, 
  0x9e, 0xca, 0x44, 0x3e, 0xe5, 0x20, 0xee, 0x3d, 0xfa, 0x5e, 0x28, 0x3e, 
  0x80, 0xbe, 0x1f, 0xbd, 0xbf, 0x34, 0x4e, 0xbd, 0x98, 0xf3, 0x18, 0xbe, 
  0x07, 0xfe, 0x0c, 0xbe, 0xe4, 0xf4, 0x57, 0xbe, 0x3a, 0x42, 0x2c, 0xbe, 
  0x64, 0xf2, 0xad, 0x3d, 0xdd, 0xa8, 0xe7, 0xbc, 0x13, 0xbb, 0x65, 0xbe, 
  0xb9, 0xaa, 0x7f, 0x3c, 0xba, 0x46, 0xbd, 0xbd, 0x5d, 0x9c, 0x35, 0xbe, 
  0xfc, 0x41, 0x08, 0xbe, 0x8e, 0x52, 0x2b, 0x3d, 0xf6, 0x7f, 0x51, 0xbc, 
  0xd0, 0xe4, 0x82, 0xbd, 0x36, 0xf8, 0x7e, 0x3d, 0x79, 0x6f, 0x5d, 0xbd, 
  0x17, 0x5f, 0x6e, 0x3e, 0x7f, 0x9b, 0x26, 0xbe, 0x7d, 0x67, 0x79, 0x3d, 
  0x74, 0xd2, 0x03, 0x3e, 0x16, 0x3b, 0x53, 0xbd, 0x60, 0x9d, 0x3d, 0x3d, 
  0xa3, 0x3a, 0x65, 0x3d, 0xa7, 0x25, 0x53, 0x3e, 0x90, 0x05, 0x2e, 0x3e, 
  0x97, 0x31, 0x0e, 0xbe, 0xa3, 0xc9, 0x2a, 0x3d, 0x0f, 0xb8, 0xd9, 0xbd, 
  0x25, 0x5a, 0x5e, 0xbc, 0x93, 0x18, 0x70, 0xbb, 0x73, 0x77, 0xac, 0x3c, 
  0xc1, 0x94, 0x6e, 0xbc, 0x0f, 0xab, 0xce, 0x3b, 0x05, 0x16, 0x5f, 0xbd, 
  0x67, 0xe8, 0x95, 0x3d, 0xfb, 0x5a, 0xb7, 0xbd, 0x99, 0xcd, 0x79, 0x3e, 
  0x2b, 0xac, 0x05, 0x3e, 0x98, 0x44, 0x17, 0xba, 0x00, 0x0d, 0x2c, 0xbd, 
  0xde, 0xaa, 0x2c, 0x3e, 0x39, 0xa9, 0x33, 0x3e, 0xd2, 0x35, 0x20, 0xbe, 
  0xe4, 0xf7, 0x53, 0x3e, 0x6f, 0xd5, 0x18, 0x3e, 0x0f, 0xa2, 0x96, 0x3e, 
  0xf8, 0x39, 0xfd, 0x3b, 0x00, 0x7b, 0xcc, 0x3d, 0x56, 0x0f, 0x4f, 0x3e, 
  0xf9, 0x0c, 0x5f, 0x3c, 0x68, 0x66, 0xc3, 0xbd, 0x79, 0x9d, 0x0d, 0x3e, 
  0x93, 0xb1, 0x29, 0x3e, 0x04, 0xde, 0xdb, 0x3c, 0xbf, 0x55, 0x0b, 0x3e, 
  0xfd, 0x88, 0x6d, 0x3e, 0x55, 0x35, 0xc0, 0x3b, 0xde, 0xea, 0xc2, 0x3c, 
  0x2c, 0xa9, 0x64, 0x3d, 0x43, 0x4b, 0x58, 0x3c, 0xe5, 0xaf, 0x24, 0xbd, 
  0x0f, 0xb3, 0x0c, 0x3e, 0xc9, 0x92, 0x7c, 0xbd, 0x9e, 0xed, 0xe7, 0xb9, 
  0xe5, 0x20, 0x21, 0x3e, 0x15, 0x83, 0xdf, 0xbd, 0x5d, 0xa4, 0x1c, 0x3d, 
  0x03, 0xf0, 0x07, 0x3e, 0x49, 0x59, 0x1b, 0xbe, 0x63, 0x70, 0xe6, 0x3d, 
  0xa4, 0x0f, 0xc5, 0x3c, 0x11, 0xf3, 0xa5, 0x3d, 0x24, 0x04, 0x34, 0x3e, 
  0x7b, 0x4e, 0x80, 0xbc, 0xee, 0xc2, 0x16, 0xbe, 0x7d, 0xa3, 0x6f, 0x3d, 
  0xbd, 0x00, 0x23, 0xbd, 0x83, 0xfc, 0x83, 0x3d, 0x9b, 0x91, 0x17, 0x3b, 
  0x53, 0x9f, 0x3b, 0xbd, 0xd3, 0xe1, 0x00, 0x3d, 0x38, 0x96, 0xd3, 0xbb, 
  0x9e, 0xfd, 0x69, 0x3d, 0x24, 0x95, 0xa4, 0x3d, 0xc0, 0x15, 0x62, 0xbc, 
  0x38, 0x25, 0x42, 0xbe, 0x21, 0x20, 0x7e, 0x3d, 0xd3, 0x62, 0x17, 0x3d, 
  0xc7, 0xfe, 0xbe, 0xbd, 0x74, 0x32, 0xaf, 0xbd, 0x19, 0x09, 0x10, 0xbe, 
  0x0d, 0x3f, 0x24, 0x3d, 0xdf, 0xe1, 0x4d, 0x3e, 0x5b, 0x54, 0x5d, 0x3d, 
  0xc5, 0xde, 0xc5, 0xbd, 0x5d, 0xfd, 0x12, 0x3e, 0x9d, 0x5e, 0x78, 0x3d, 
  0x36, 0x9e, 0x10, 0xbe, 0xd1, 0x7a, 0xdf, 0xbd, 0xfe, 0x7d, 0xc4, 0xbd, 
  0x2c, 0x8b, 0xb4, 0x3d, 0x7f, 0x14, 0xa6, 0x3d, 0x25, 0x41, 0x1c, 0xbe, 
  0x9b, 0x8d, 0x51, 0xbe, 0x7d, 0x23, 0xf0, 0xbd, 0xf8, 0x35, 0x42, 0xbe, 
  0xb0, 0xe5, 0x20, 0xbe, 0xae, 0x98, 0x64, 0xbd, 0x6a, 0xd0, 0x37, 0xbe, 
  0xb4, 0x93, 0xb7, 0xbb, 0xcf, 0xe1, 0xa0, 0x3b, 0xf2, 0x2e, 0x5a, 0xbd, 
  0xe4, 0x7b, 0xc3, 0x3e, 0x16, 0x5c, 0x8f, 0xbe, 0x77, 0x9a, 0xb3, 0x3d, 
  0xf5, 0xe2, 0xb1, 0x3e, 0x3a, 0xc4, 0x36, 0x3d, 0xd8, 0xe6, 0x9e, 0x3e, 
  0xc3, 0xfa, 0x5e, 0xbe, 0xa5, 0xe4, 0x76, 0xbe, 0x65, 0x1c, 0x4c, 0x3e, 
  0x18, 0xac, 0x14, 0xbb, 0x47, 0x3d, 0x33, 0x3e, 0xba, 0x98, 0x32, 0x3e, 
  0x8f, 0x83, 0x25, 0x3e, 0xc3, 0x83, 0x1a, 0xbe, 0x7a, 0x87, 0x03, 0x3e, 
  0xa0, 0x64, 0x27, 0x3e, 0x18, 0x01, 0x6d, 0xbd, 0xe7, 0xe9, 0x69, 0xbe, 
  0xd1, 0x4f, 0x19, 0xbe, 0x1d, 0x4a, 0x40, 0x3e, 0xf6, 0x0d, 0x5a, 0x3e, 
  0xfb, 0x88, 0x07, 0xbe, 0x03, 0x0c, 0x37, 0xbd, 0x3a, 0x2c, 0x67, 0x3c, 
  0xb4, 0x8d, 0xb4, 0x3c, 0x61, 0x7b, 0xa6, 0x3d, 0xc6, 0x5c, 0xba, 0x3d, 
  0xf5, 0x73, 0x92, 0x3e, 0x13, 0x78, 0x3a, 0x3e, 0xc6, 0x90, 0x88, 0xb9, 
  0x39, 0x2d, 0x58, 0xbe, 0x35, 0xd4, 0x63, 0xbd, 0x96, 0xfd, 0x40, 0xba, 
  0xbe, 0x49, 0x00, 0xbe, 0xb9, 0x7b, 0x2d, 0x3e, 0xf2, 0x10, 0x3c, 0x3e, 
  0x99, 0x94, 0xdc, 0xbd, 0xa1, 0x41, 0x7c, 0xbe, 0xe2, 0x5d, 0xf9, 0xbd, 
  0xc5, 0x2b, 0xff, 0x3c, 0xc1, 0xb8, 0x4c, 0xbd, 0x25, 0x3e, 0x52, 0xbd, 
  0x19, 0x6b, 0x0b, 0x3e, 0xad, 0x75, 0xb9, 0xbc, 0x45, 0xf9, 0x7d, 0x3d, 
  0x53, 0x49, 0x67, 0xbe, 0x90, 0x97, 0x80, 0x3e, 0xa2, 0x4a, 0x85, 0xbe, 
  0xcf, 0x8a, 0x34, 0x3d, 0xeb, 0x90, 0x0b, 0xbe, 0xf7, 0xb3, 0x1b, 0xbe, 
  0x99, 0x7b, 0x4f, 0x3e, 0x32, 0x2d, 0x2c, 0xbe, 0x6b, 0xf9, 0x70, 0x3e, 
  0x85, 0x84, 0x11, 0xbe, 0xf3, 0x1d, 0xd1, 0xbe, 0x0f, 0xaf, 0xc3, 0x3d, 
  0xed, 0x02, 0x7a, 0x3e, 0x0c, 0xd7, 0x0c, 0x3e, 0xbb, 0x36, 0xc2, 0xbc, 
  0x75, 0x32, 0x97, 0x3e, 0x2d, 0x3d, 0x22, 0xbe, 0xdc, 0x9b, 0x91, 0xbd, 
  0x03, 0x92, 0xdf, 0xbd, 0x90, 0xc1, 0x84, 0xbd, 0x8b, 0x06, 0x4f, 0x3e, 
  0xcf, 0x32, 0xd5, 0x3d, 0x67, 0xef, 0x23, 0x3d, 0xa9, 0x20, 0xed, 0xbd, 
  0x53, 0xb5, 0xfb, 0x3d, 0x72, 0xfa, 0x1c, 0x3e, 0x65, 0xb0, 0xd2, 0xba, 
  0xcd, 0x16, 0xef, 0x3c, 0x57, 0x29, 0x5c, 0x3e, 0xb0, 0xb9, 0x69, 0x3e, 
  0xc1, 0x34, 0x37, 0x3e, 0x7e, 0xb7, 0x2a, 0x3e, 0xd1, 0xb4, 0xee, 0xbc, 
  0xbe, 0x07, 0xce, 0xbd, 0xd5, 0x89, 0x4d, 0x3e, 0x93, 0x40, 0x62, 0xbd, 
  0xf6, 0x48, 0x42, 0x3e, 0x23, 0x2e, 0x34, 0x3e, 0x4e, 0x42, 0x69, 0x3e, 
  0x37, 0xac, 0x7f, 0x3d, 0x0b, 0xfb, 0x05, 0xbd, 0x70, 0xf1, 0xad, 0x3c, 
  0x55, 0x43, 0x2a, 0xbe, 0x51, 0x91, 0x00, 0x3e, 0x32, 0xcb, 0x4b, 0xbe, 
  0x1a, 0x11, 0x13, 0xbd, 0x4d, 0x81, 0x38, 0xbd, 0xc6, 0x61, 0x61, 0x3e, 
  0x2e, 0xc4, 0xfc, 0xbc, 0x83, 0x67, 0x99, 0x3d, 0x6e, 0x8f, 0xfc, 0x3d, 
  0xac, 0xc3, 0xa9, 0xbb, 0x37, 0x25, 0x05, 0x3e, 0x23, 0x30, 0xd0, 0xbc, 
  0xfa, 0xd8, 0x69, 0x3e, 0xd1, 0x31, 0x28, 0x3e, 0xbf, 0xfa, 0x6e, 0x3e, 
  0x0d, 0x2d, 0xe9, 0xbd, 0x39, 0x90, 0xd0, 0x3d, 0xb8, 0x43, 0x1a, 0xbc, 
  0x41, 0x66, 0x23, 0x3d, 0xd7, 0x3c, 0x6a, 0xbd, 0xca, 0xba, 0xd8, 0x3d, 
  0xe1, 0xe5, 0x26, 0x3e, 0xe0, 0x15, 0x61, 0x3e, 0x30, 0x78, 0x5b, 0x3d, 
  0x58, 0x45, 0xe6, 0xbc, 0xb3, 0x7c, 0x44, 0x3d, 0x42, 0xe0, 0xbe, 0xbd, 
  0x9a, 0xe0, 0xd3, 0xbb, 0x12, 0xf3, 0x67, 0xbd, 0x47, 0x7b, 0x6e, 0x3e, 
  0x46, 0x64, 0x16, 0xbb, 0xe7, 0xe3, 0xc5, 0xbc, 0x4d, 0xfd, 0x5b, 0xbd, 
  0x1a, 0xf0, 0x51, 0x3e, 0x66, 0x98, 0xbb, 0xbb, 0xb1, 0x8c, 0x02, 0x3e, 
  0x90, 0xb0, 0x36, 0x3e, 0xc0, 0x35, 0x87, 0x3e, 0xe4, 0xd8, 0x9e, 0xbd, 
  0x39, 0xc5, 0x29, 0x3e, 0x90, 0xc1, 0x83, 0x3e, 0x6b, 0x79, 0xca, 0xbd, 
  0x6f, 0x41, 0x41, 0x3d, 0xb1, 0x7c, 0x80, 0xbd, 0xfc, 0xc8, 0x8b, 0xbd, 
  0xe1, 0x34, 0xae, 0x3b, 0xb7, 0xbe, 0x04, 0x3d, 0x5b, 0x8f, 0x35, 0x3e, 
  0xb8, 0x0f, 0x24, 0xbd, 0xf3, 0xb7, 0xb6, 0x3d, 0x5b, 0x38, 0x02, 0xbe, 
  0x7a, 0x2a, 0x1f, 0x3e, 0x65, 0x89, 0x2a, 0x3e, 0x6e, 0x92, 0x42, 0x3e, 
  0xb0, 0x7a, 0x16, 0x3c, 0xac, 0xb0, 0x8c, 0x3e, 0xc9, 0xb1, 0x59, 0xbd, 
  0xc4, 0xab, 0x2c, 0x3d, 0x83, 0xae, 0xe8, 0xbd, 0xf3, 0x37, 0x49, 0x3e, 
  0x1e, 0x72, 0x2e, 0x3e, 0x59, 0x9e, 0x60, 0x3e, 0xc5, 0x49, 0x93, 0xbd, 
  0xb4, 0xf5, 0x13, 0x3d, 0x3f, 0xd3, 0xfc, 0x3d, 0x36, 0x7c, 0xb3, 0x3d, 
  0x5e, 0xef, 0x4e, 0x3e, 0x8c, 0xd2, 0x88, 0x3e, 0xcd, 0x83, 0x16, 0xbe, 
  0x4f, 0x9d, 0xfc, 0xbd, 0xe0, 0x0f, 0x85, 0x3e, 0xa5, 0x4c, 0xa2, 0xbd, 
  0xbf, 0x50, 0x47, 0x3e, 0x42, 0xbb, 0xb1, 0x3d, 0x2c, 0x95, 0x79, 0x3e, 
  0xce, 0x5c, 0x95, 0x3e, 0x17, 0x1b, 0x88, 0x3c, 0x5f, 0x47, 0x46, 0x3e, 
  0x7c, 0xdf, 0x0a, 0xbe, 0x43, 0xda, 0x0c, 0x3e, 0xc2, 0x67, 0x37, 0x3d, 
  0x18, 0x4f, 0x80, 0x3e, 0x9e, 0xda, 0x12, 0xbc, 0x40, 0x52, 0x11, 0xbe, 
  0xfd, 0x68, 0x2d, 0xbd, 0x08, 0xf7, 0x5a, 0x3e, 0x80, 0x3c, 0x24, 0x3e, 
  0x84, 0x2d, 0x23, 0x3e, 0x85, 0x46, 0xb7, 0xbd, 0x24, 0x5a, 0x46, 0x3e, 
  0x34, 0x1e, 0x82, 0x3c, 0x95, 0x89, 0x43, 0x3e, 0xe0, 0x0f, 0x53, 0x3e, 
  0xcf, 0x9f, 0x8f, 0x3e, 0xa5, 0x3b, 0x33, 0x3e, 0x78, 0x13, 0x8e, 0x3e, 
  0xd7, 0x76, 0x8d, 0x3c, 0x45, 0x5f, 0x36, 0x3d, 0xff, 0xb8, 0x5a, 0x3e, 
  0x7d, 0x25, 0xd9, 0x3a, 0x77, 0xe7, 0x91, 0x3e, 0x3e, 0x32, 0x88, 0x3d, 
  0x02, 0xe8, 0x86, 0xbd, 0x99, 0x55, 0x3a, 0x3c, 0x3a, 0xe8, 0x7a, 0x3e, 
  0x99, 0x4e, 0x25, 0xbb, 0x78, 0x58, 0x60, 0x3e, 0xe5, 0xc3, 0x0b, 0xbe, 
  0xcc, 0x37, 0xcb, 0xbd, 0x04, 0x6a, 0x0a, 0xbe, 0x7b, 0xa6, 0x14, 0x3d, 
  0x33, 0x59, 0x08, 0x3e, 0xf1, 0x43, 0x01, 0xbe, 0x30, 0x08, 0x1b, 0xbe, 
  0xc7, 0xe8, 0xf4, 0xbd, 0xdb, 0xce, 0x4b, 0x3e, 0x5b, 0x99, 0xa0, 0x3d, 
  0xbe, 0x17, 0xde, 0x3d, 0x91, 0x2c, 0xf9, 0x3d, 0x6a, 0xeb, 0xb9, 0xbd, 
  0xc0, 0x10, 0x40, 0x3d, 0xdc, 0x7a, 0xcf, 0x3d, 0xd2, 0x28, 0x27, 0x3e, 
  0x00, 0x67, 0x4f, 0x3e, 0x85, 0x3a, 0x58, 0x3e, 0x6f, 0x46, 0x61, 0xbd, 
  0xb0, 0x69, 0xc3, 0x3d, 0x91, 0xf6, 0xcd, 0x3d, 0x10, 0x22, 0x1f, 0x3d, 
  0x6d, 0x03, 0x05, 0xbe, 0xc1, 0x71, 0x90, 0x3e, 0xed, 0xdf, 0xb5, 0xbd, 
  0xa1, 0xc7, 0x9c, 0xbd, 0xdc, 0x35, 0x53, 0x3d, 0x94, 0xc1, 0x97, 0x3d, 
  0x29, 0xa0, 0x05, 0xbe, 0x92, 0x8f, 0x40, 0x3e, 0xb9, 0x41, 0x18, 0xbc, 
  0x66, 0x50, 0x82, 0xbc, 0x33, 0xe3, 0x7a, 0x3e, 0x21, 0x8c, 0x14, 0x3e, 
  0x88, 0xae, 0x7b, 0x3d, 0x21, 0xde, 0xeb, 0x3b, 0x31, 0x27, 0xe5, 0xbd, 
  0x7a, 0xef, 0x11, 0x3e, 0x6d, 0x7f, 0xdf, 0x3d, 0xff, 0x78, 0x28, 0xbc, 
  0x39, 0xdd, 0xc8, 0xbd, 0xbd, 0x83, 0x99, 0x3d, 0xa3, 0x36, 0xee, 0x3c, 
  0xf5, 0x2f, 0x5e, 0x3e, 0x0e, 0xd9, 0x60, 0x3e, 0x47, 0x9a, 0x69, 0xbd, 
  0xbd, 0x22, 0x89, 0x3d, 0x45, 0xc6, 0x4c, 0x3c, 0x15, 0x86, 0x78, 0x3d, 
  0x21, 0xa6, 0xe0, 0xbd, 0x59, 0x80, 0x33, 0x3d, 0x33, 0x39, 0xbc, 0xbd, 
  0xb3, 0xe4, 0x92, 0x3c, 0x73, 0xd6, 0x98, 0xbd, 0xd6, 0x1f, 0x4c, 0x3d, 
  0xfa, 0x3c, 0xae, 0xbc, 0x6d, 0x92, 0xe4, 0xbd, 0xb5, 0x03, 0x97, 0xbd, 
  0xd1, 0xc7, 0x54, 0x3b, 0x3f, 0xf2, 0x9f, 0xbd, 0x59, 0x3c, 0xf4, 0x3d, 
  0xfb, 0xe5, 0x5a, 0xbd, 0x0c, 0x11, 0x14, 0x3e, 0x61, 0x7f, 0x7e, 0x3e, 
  0xb6, 0xcc, 0x40, 0x3e, 0x08, 0x94, 0x86, 0x3e, 0xbc, 0xe6, 0x84, 0x3e, 
  0x21, 0x1e, 0x35, 0x3e, 0x86, 0x96, 0xff, 0xbb, 0x2c, 0xf0, 0x66, 0x3d, 
  0xeb, 0xec, 0x5c, 0x3e, 0xbb, 0xb8, 0x2f, 0x3e, 0xa2, 0x82, 0x5d, 0xbd, 
  0x1b, 0x3d, 0xb3, 0x3d, 0x76, 0xd7, 0xd2, 0xbd, 0x1e, 0x5e, 0x0e, 0xbe, 
  0xb1, 0xc4, 0x3f, 0x3e, 0xbe, 0x8b, 0x0c, 0xbd, 0x14, 0x4b, 0x76, 0x3e, 
  0x3f, 0xae, 0xac, 0xbc, 0xc4, 0x3e, 0x1b, 0xbd, 0x17, 0x28, 0x25, 0xbc, 
  0xe8, 0xd9, 0x7a, 0xbd, 0x28, 0xb5, 0x8f, 0x3e, 0x8e, 0x18, 0x38, 0x3e, 
  0xaf, 0xe9, 0x87, 0x3e, 0xd2, 0x7e, 0x31, 0x3e, 0xf6, 0xb2, 0x88, 0x3e, 
  0x45, 0x9c, 0x95, 0x3d, 0x06, 0x3c, 0x8f, 0x3e, 0xdb, 0x8f, 0xc3, 0x3d, 
  0x31, 0xe4, 0x46, 0xbd, 0xa5, 0x0c, 0x8c, 0xbd, 0x0c, 0xb1, 0xca, 0xbc, 
  0xff, 0x78, 0x91, 0x3e, 0x75, 0x44, 0xbc, 0x3b, 0x7b, 0x48, 0x44, 0x3d, 
  0xc3, 0xbf, 0xb6, 0x3c, 0xb3, 0x0e, 0x85, 0x3e, 0x91, 0xc5, 0x49, 0x3e, 
  0x8c, 0xeb, 0x25, 0x3e, 0x1a, 0xa3, 0x7e, 0x3e, 0xf9, 0x36, 0x35, 0x3d, 
  0x51, 0x22, 0x9c, 0x3e, 0x0b, 0x2f, 0x4d, 0x3d, 0x39, 0x3c, 0x9b, 0xbd, 
  0xe3, 0x95, 0x1a, 0x3d, 0x4b, 0xbe, 0x38, 0x3e, 0x4a, 0xd4, 0x2d, 0x3e, 
  0x0b, 0x8b, 0x58, 0x3d, 0x8f, 0x3f, 0xb5, 0xbc, 0x4e, 0xe9, 0xe5, 0xbd, 
  0x78, 0x5c, 0xea, 0x3c, 0x43, 0xff, 0x34, 0x3d, 0x7f, 0x45, 0x20, 0x3c, 
  0xa0, 0x8d, 0x03, 0x3e, 0xca, 0xf0, 0xa4, 0x3d, 0x4e, 0x7f, 0x84, 0xbd, 
  0x27, 0xaf, 0x40, 0x3e, 0xc2, 0x84, 0xe2, 0xbb, 0xdb, 0x7c, 0xba, 0x3d, 
  0xa3, 0x6d, 0xb6, 0xb9, 0x29, 0x27, 0x61, 0xbc, 0xa5, 0xbb, 0x79, 0x3e, 
  0x62, 0x96, 0xd9, 0x3d, 0xdb, 0x23, 0x07, 0x3d, 0x17, 0x80, 0x6c, 0x3d, 
  0xf5, 0x2a, 0x18, 0x3e, 0x27, 0x03, 0x8e, 0x3e, 0x36, 0x7c, 0x35, 0x3e, 
  0xc2, 0x94, 0x8b, 0xbd, 0xe9, 0x24, 0xf7, 0x3c, 0xa4, 0xaf, 0x8c, 0x3e, 
  0xc1, 0xf9, 0x3b, 0x3d, 0x01, 0x13, 0xf9, 0xbd, 0xd2, 0xf1, 0xe5, 0x3d, 
  0xcd, 0x37, 0x59, 0xbb, 0xd9, 0x31, 0x14, 0xbe, 0xd6, 0xde, 0x57, 0x3e, 
  0x0f, 0x2d, 0x0b, 0x3e, 0xdd, 0xba, 0xa7, 0xbd, 0xdb, 0x1b, 0x11, 0x3e, 
  0xff, 0x45, 0x47, 0x3e, 0x85, 0x51, 0x81, 0xbd, 0x03, 0x59, 0xb4, 0x3c, 
  0x2f, 0x5b, 0xd0, 0xbd, 0x3d, 0x1d, 0x0b, 0xbd, 0xcc, 0x0f, 0xd8, 0xbd, 
  0xb9, 0x36, 0x56, 0x3e, 0x57, 0x9e, 0x49, 0x3d, 0x44, 0x5f, 0x8e, 0x3e, 
  0xd1, 0x1c, 0xaf, 0xbd, 0x0c, 0xa9, 0xef, 0xbd, 0x10, 0x7e, 0xc1, 0x3d, 
  0xe5, 0x18, 0xba, 0xbd, 0x9a, 0xd6, 0xc3, 0xbb, 0x13, 0xda, 0xd2, 0xbc, 
  0x6c, 0x9b, 0x5b, 0x3e, 0x9e, 0x12, 0x0e, 0x3d, 0x85, 0x07, 0x33, 0xbe, 
  0x11, 0x0d, 0x12, 0x3e, 0x0c, 0x49, 0xe6, 0xbc, 0xec, 0x1e, 0xb1, 0xbd, 
  0x83, 0xec, 0x95, 0x3c, 0x22, 0x2a, 0x9f, 0x3c, 0xda, 0x4f, 0x8c, 0xbd, 
  0x01, 0x8d, 0x0d, 0xbc, 0xef, 0x00, 0x42, 0x3e, 0xb1, 0x63, 0x3f, 0xbd, 
  0x19, 0x35, 0x43, 0x3e, 0x0c, 0xb4, 0x00, 0xbe, 0x81, 0x4d, 0xaa, 0x3c, 
  0x64, 0x7b, 0x5f, 0xbe, 0xcd, 0xf6, 0x20, 0x3e, 0x30, 0x47, 0xae, 0xbd, 
  0x68, 0xcd, 0xff, 0xbd, 0xbf, 0xd9, 0x3a, 0x3e, 0x47, 0xe7, 0x2c, 0x3e, 
  0xbc, 0xf2, 0xb1, 0x3c, 0x4a, 0xd2, 0xec, 0xbd, 0x00, 0x37, 0x26, 0x3d, 
  0xe7, 0x3e, 0x0c, 0xbd, 0x4c, 0xdf, 0x83, 0xb9, 0x09, 0x66, 0x71, 0xbd, 
  0xe2, 0x4a, 0x7e, 0xbd, 0x0f, 0xd6, 0x19, 0x3e, 0xfb, 0x35, 0xfc, 0xbc, 
  0x43, 0xd7, 0xb2, 0xbd, 0xef, 0xf4, 0x3b, 0xbd, 0x14, 0x9e, 0x95, 0xbc, 
  0x13, 0xe4, 0xcc, 0x3d, 0x6b, 0x08, 0x4d, 0x3c, 0x19, 0xe3, 0xa6, 0x3d, 
  0x04, 0x21, 0x32, 0x3e, 0x71, 0xc6, 0x7b, 0x3e, 0xf0, 0x9f, 0xc3, 0xbd, 
  0xbb, 0x05, 0x68, 0xbd, 0xa5, 0x73, 0x5e, 0x3e, 0x47, 0xd2, 0xf1, 0xbc, 
  0xe1, 0x65, 0xc0, 0x3d, 0x2d, 0x2d, 0xc4, 0xbd, 0x2b, 0xa5, 0x22, 0x3e, 
  0xfc, 0x47, 0xcb, 0x3c, 0x0f, 0xd0, 0xa0, 0x3d, 0x7f, 0x94, 0x16, 0x3e, 
  0xef, 0x71, 0x89, 0x3d, 0xdf, 0xf3, 0x62, 0xbd, 0xa8, 0xa2, 0xa9, 0xbd, 
  0x33, 0x11, 0xeb, 0x3c, 0x8a, 0x3a, 0x64, 0x3e, 0xc0, 0xc7, 0x38, 0x3e, 
  0xc4, 0x9b, 0x41, 0xbd, 0xb8, 0x23, 0x30, 0x3e, 0xd6, 0x49, 0x9d, 0xbd, 
  0x1c, 0xa2, 0xa1, 0xbd, 0x6d, 0xda, 0x75, 0x3d, 0xe6, 0x06, 0xeb, 0xba, 
  0x85, 0x62, 0x31, 0xbd, 0xf7, 0x2c, 0x3e, 0x3e, 0x03, 0x77, 0xd4, 0xbd, 
  0xe7, 0xb1, 0x4b, 0xbe, 0x31, 0x82, 0x52, 0x3d, 0x02, 0x57, 0xec, 0xbd, 
  0x4c, 0xc2, 0x14, 0x3e, 0x30, 0xf5, 0xfd, 0x3c, 0xec, 0xac, 0xd6, 0x3c, 
  0x16, 0x73, 0x94, 0xbd, 0xe1, 0x22, 0x04, 0xbe, 0xff, 0x00, 0x54, 0x3b, 
  0x92, 0xd5, 0xdc, 0xbc, 0x5d, 0xe1, 0x89, 0x3e, 0xcd, 0xc4, 0x5d, 0x3e, 
  0x80, 0x7e, 0x90, 0x3e, 0xef, 0xcd, 0x0f, 0xbd, 0xda, 0x1a, 0xb8, 0xbd, 
  0xa2, 0xe5, 0xcb, 0x3d, 0x25, 0x78, 0x8f, 0x3e, 0xe4, 0xc1, 0x3d, 0xbc, 
  0x7f, 0x69, 0xb6, 0xbd, 0x7f, 0xdb, 0x9c, 0x3c, 0x53, 0xc1, 0xb0, 0x3d, 
  0x29, 0x6e, 0x85, 0x3e, 0x20, 0xed, 0x1d, 0x3e, 0x57, 0x38, 0xb7, 0xbd, 
  0xc2, 0x8f, 0x45, 0x3d, 0x76, 0x10, 0x8a, 0xbd, 0x21, 0x3f, 0x52, 0x3d, 
  0x0d, 0xa7, 0x71, 0x3e, 0x28, 0x5a, 0x3e, 0x3e, 0x93, 0x5a, 0xc9, 0x3c, 
  0x1e, 0x7b, 0x88, 0xbc, 0x6b, 0xb2, 0x17, 0x3e, 0x7d, 0xb1, 0xed, 0x3d, 
  0x81, 0xce, 0x56, 0x3e, 0x87, 0xa7, 0x10, 0x3d, 0x9d, 0xde, 0x70, 0x3d, 
  0x93, 0xb3, 0x47, 0x3e, 0x07, 0xb3, 0xdc, 0xbd, 0x2c, 0x8e, 0x24, 0x3e, 
  0x9c, 0x43, 0x33, 0x3e, 0x04, 0xa7, 0x37, 0x3e, 0x77, 0x32, 0xac, 0x3d, 
  0x6b, 0xcc, 0x17, 0x3d, 0xd2, 0x7f, 0xd9, 0x3d, 0x7e, 0x4b, 0x06, 0xbe, 
  0x40, 0xcf, 0x31, 0x3e, 0x3b, 0x0b, 0xc8, 0x3d, 0x2a, 0x8e, 0x7d, 0x3e, 
  0x7b, 0xe0, 0x6b, 0x3e, 0xe7, 0xd5, 0x24, 0x3e, 0x27, 0x56, 0x89, 0x3e, 
  0x4d, 0x38, 0x86, 0x3d, 0x7b, 0xd3, 0x10, 0x3d, 0xef, 0xb9, 0xc8, 0x3d, 
  0xfc, 0x10, 0x6e, 0x3e, 0x8a, 0xd9, 0xcf, 0x3b, 0xb4, 0x1e, 0x9a, 0x3d, 
  0x0f, 0x96, 0x8f, 0x3e, 0xbc, 0x67, 0xf6, 0x3c, 0x32, 0xc0, 0x0e, 0xbe, 
  0xde, 0x5b, 0x84, 0x3e, 0x56, 0x3c, 0x53, 0x3e, 0xb4, 0x25, 0x73, 0x3e, 
  0x59, 0x1a, 0x82, 0x3d, 0x60, 0x70, 0xda, 0xbd, 0x9c, 0xb8, 0x79, 0x3e, 
  0x56, 0x29, 0x8f, 0x3e, 0xf2, 0x3e, 0x33, 0x3e, 0x59, 0xf9, 0x62, 0x3e, 
  0x05, 0x7e, 0x98, 0xbc, 0x01, 0x9c, 0x84, 0xbb, 0x4a, 0x82, 0x8f, 0x3e, 
  0xcd, 0x13, 0xc6, 0x3d, 0x94, 0xf7, 0xb6, 0xbd, 0xc3, 0xd8, 0xc1, 0x3d, 
  0xa7, 0x26, 0x51, 0xbd, 0x5f, 0xd1, 0x29, 0x3e, 0x4a, 0x6b, 0x32, 0x3d, 
  0x17, 0xb3, 0x42, 0x3e, 0x7a, 0x57, 0x7a, 0x3e, 0x7e, 0xab, 0x46, 0x3c, 
  0x8b, 0xd4, 0x93, 0x3e, 0x10, 0x49, 0x45, 0x3e, 0x9a, 0x25, 0x46, 0xbe, 
  0xb9, 0x1e, 0x16, 0xbe, 0x27, 0xe0, 0x6e, 0x3e, 0xf9, 0xb2, 0x5f, 0x3e, 
  0x2c, 0x86, 0x32, 0xbd, 0x36, 0xa3, 0x2d, 0x3c, 0x2b, 0x6f, 0x7d, 0x3d, 
  0x23, 0x40, 0xb3, 0x3e, 0x6a, 0xed, 0xd5, 0xbd, 0x21, 0xe3, 0xca, 0x3d, 
  0xfe, 0xf2, 0xa7, 0x3e, 0xd0, 0x3a, 0x4c, 0x3e, 0x07, 0xe6, 0xd8, 0x3e, 
  0x00, 0xdc, 0xcc, 0x3d, 0xb4, 0x14, 0x37, 0x3c, 0xac, 0xc9, 0x8e, 0xbc, 
  0x94, 0xf7, 0x4f, 0x3e, 0x96, 0xee, 0x05, 0x3e, 0x82, 0x2f, 0x27, 0x3e, 
  0x6b, 0x76, 0x66, 0x3b, 0x1f, 0x09, 0xc5, 0x3c, 0xae, 0x94, 0xa4, 0x3d, 
  0x62, 0x18, 0x13, 0x3c, 0xeb, 0xd5, 0xc1, 0x3d, 0xd7, 0x6e, 0xe9, 0xbd, 
  0x21, 0xb2, 0x18, 0x3e, 0xe7, 0x41, 0xa6, 0xbd, 0x5f, 0xc9, 0x46, 0x3e, 
  0x85, 0x0b, 0x33, 0xbd, 0x0a, 0x8b, 0x88, 0x3e, 0xc8, 0xa9, 0x82, 0xbd, 
  0xc9, 0xf5, 0xb6, 0x3e, 0xd5, 0x70, 0x16, 0xbb, 0x9b, 0x5f, 0x4d, 0xbd, 
  0xa0, 0x5e, 0x03, 0x3e, 0xe5, 0x17, 0x2f, 0x3e, 0xc4, 0x81, 0x5c, 0x3e, 
  0x1b, 0xe6, 0x39, 0xbe, 0x65, 0x70, 0xc6, 0x3b, 0x21, 0x9d, 0x2b, 0x3e, 
  0x4d, 0x64, 0xb6, 0x3c, 0x64, 0x0f, 0x83, 0x3e, 0x8c, 0x74, 0x13, 0xbd, 
  0x5c, 0x33, 0x00, 0x3e, 0x11, 0x99, 0xcb, 0x3c, 0x89, 0x3f, 0x25, 0x3c, 
  0x22, 0x9c, 0xa1, 0x3d, 0xfd, 0x3d, 0xf2, 0x3c, 0x53, 0x0c, 0xe4, 0x3d, 
  0x85, 0xd1, 0x2c, 0x3c, 0xf8, 0x8a, 0xf3, 0x3c, 0x91, 0xff, 0x6b, 0x3e, 
  0xb4, 0x7b, 0x80, 0x3d, 0xb5, 0x96, 0xf7, 0xba, 0x39, 0xf4, 0x5e, 0x3e, 
  0xf5, 0x9b, 0x3d, 0x3d, 0xcf, 0xe4, 0xbd, 0x3d, 0xeb, 0xdd, 0xd8, 0xbc, 
  0x6e, 0x67, 0x72, 0x3e, 0xee, 0xa3, 0x61, 0x3e, 0xd0, 0x17, 0xa2, 0x3e, 
  0x90, 0x4b, 0x3a, 0xbe, 0x1f, 0x57, 0x0f, 0x3e, 0xdd, 0x64, 0x8e, 0x3e, 
  0xe1, 0xb0, 0x9d, 0x3e, 0xe1, 0x4c, 0x01, 0x3e, 0x2f, 0xd2, 0x26, 0x3e, 
  0xf1, 0x6a, 0x7f, 0x3d, 0x8e, 0x62, 0x30, 0x3d, 0x4b, 0xb8, 0x78, 0x3e, 
  0xbd, 0x94, 0x45, 0x3d, 0xa1, 0x76, 0x90, 0xbb, 0xef, 0xbe, 0xd1, 0xbd, 
  0x89, 0x30, 0x7b, 0x3e, 0x27, 0xe7, 0x8c, 0x3e, 0xe0, 0x05, 0x44, 0x3e, 
  0x62, 0x4f, 0xd4, 0xbc, 0x93, 0x5f, 0x96, 0x3e, 0x91, 0x0d, 0xfb, 0x3c, 
  0xa1, 0xcd, 0x69, 0x3e, 0x3b, 0xf9, 0x9b, 0xbc, 0x4f, 0xfe, 0x8a, 0x3e, 
  0x48, 0x14, 0x9c, 0x3e, 0xb7, 0x3b, 0x19, 0x3e, 0x49, 0x43, 0x3b, 0x3e, 
  0xb1, 0xbe, 0x0a, 0x3e, 0x61, 0x4e, 0xa2, 0x3d, 0xe2, 0x7f, 0xe6, 0x3d, 
  0x2c, 0x59, 0x6d, 0x3e, 0xf5, 0x28, 0x13, 0xbd, 0x90, 0x9c, 0xf6, 0x3a, 
  0x40, 0x38, 0x0d, 0x3e, 0xd6, 0xd2, 0x92, 0x3e, 0xe3, 0x1e, 0x80, 0x3e, 
  0x07, 0xcf, 0x1e, 0xbe, 0x00, 0xc0, 0xc4, 0xbd, 0xe8, 0x4f, 0x58, 0x3e, 
  0x5e, 0x25, 0x43, 0x3e, 0xc6, 0x9c, 0xdd, 0xbc, 0x88, 0x6d, 0x0c, 0xbe, 
  0x5e, 0x52, 0x3f, 0x3e, 0x06, 0x1b, 0x75, 0x3e, 0x1c, 0xa4, 0x0d, 0xbe, 
  0x66, 0x5b, 0x4a, 0x3e, 0x9a, 0xd3, 0xb7, 0xbd, 0xf1, 0x3e, 0x91, 0xbd, 
  0x63, 0x45, 0x31, 0x3e, 0x31, 0x6b, 0x36, 0x3e, 0x00, 0xd3, 0x0f, 0x3e, 
  0x21, 0x42, 0xc1, 0x3d, 0xdd, 0x43, 0x7d, 0x3e, 0x64, 0x4e, 0x84, 0xbd, 
  0x2c, 0xab, 0x5f, 0x3e, 0x1e, 0xb6, 0x83, 0x3d, 0x6b, 0xcc, 0x61, 0xbd, 
  0xcf, 0x2f, 0x4f, 0x3d, 0x27, 0xa3, 0x51, 0x3e, 0x66, 0x7b, 0x29, 0x3e, 
  0x78, 0x9c, 0x56, 0x3e, 0x88, 0x69, 0xfb, 0x3d, 0x31, 0x39, 0x0e, 0x3e, 
  0xcf, 0xf4, 0x52, 0x3c, 0x04, 0x39, 0x8f, 0x3d, 0x3a, 0x18, 0xad, 0xbc, 
  0x8d, 0x06, 0xdf, 0xbd, 0x0f, 0x71, 0x89, 0x3e, 0x1f, 0x18, 0x2b, 0x3e, 
  0x08, 0x89, 0x1f, 0x3e, 0x52, 0xe1, 0x00, 0x3e, 0x0c, 0x52, 0x8e, 0xbc, 
  0xab, 0x07, 0x31, 0x3e, 0x8c, 0x02, 0x80, 0x3e, 0x9e, 0xb4, 0x2f, 0x3e, 
  0xfd, 0xc5, 0x7f, 0x3c, 0xd4, 0x12, 0xb7, 0x3e, 0x04, 0x5b, 0x1b, 0xbe, 
  0xda, 0xaf, 0x20, 0x3e, 0xd6, 0x24, 0x3a, 0x3e, 0xa8, 0xf7, 0xa3, 0x3d, 
  0x41, 0xdc, 0xcc, 0xbd, 0x56, 0xfa, 0x09, 0x3e, 0x08, 0x33, 0xc1, 0x3c, 
  0xe6, 0x40, 0x41, 0xbd, 0x57, 0xed, 0x05, 0x3e, 0xf8, 0x7a, 0x97, 0x3d, 
  0xb2, 0xf6, 0x78, 0x3e, 0xb6, 0xde, 0x29, 0xbe, 0x3f, 0x83, 0xd5, 0xbd, 
  0xf0, 0x5b, 0x93, 0xbd, 0xff, 0xb2, 0x05, 0xbe, 0x80, 0xb4, 0x97, 0xbd, 
  0x33, 0x9a, 0xdd, 0xbd, 0x08, 0xee, 0x58, 0x3e, 0x6a, 0xac, 0x38, 0xbc, 
  0xf6, 0x8f, 0x9c, 0xbe, 0x59, 0x20, 0xe3, 0xbd, 0x96, 0xf1, 0x56, 0xbd, 
  0x9d, 0xc8, 0x2b, 0x3d, 0x14, 0x73, 0x84, 0xbd, 0xbe, 0x0c, 0xf0, 0x3d, 
  0xa6, 0x3c, 0x36, 0xbe, 0x95, 0x8a, 0xde, 0x3d, 0x62, 0xf9, 0xa1, 0xbe, 
  0x2a, 0x55, 0x2e, 0x3e, 0x19, 0x88, 0x1b, 0x3e, 0x1a, 0xcf, 0x19, 0xbe, 
  0x0c, 0xcb, 0xd8, 0xbd, 0xf2, 0xc8, 0x1b, 0xbe, 0x09, 0xb7, 0x76, 0x3e, 
  0xf4, 0xb1, 0x88, 0x3d, 0x0c, 0xfe, 0x79, 0xbe, 0x48, 0x0e, 0xa2, 0x3c, 
  0xfa, 0x02, 0xd4, 0xbd, 0x7f, 0xbb, 0xfc, 0x3d, 0x61, 0x02, 0x13, 0xbe, 
  0x3f, 0x08, 0xe4, 0x3d, 0x12, 0x7b, 0x7d, 0x3a, 0x82, 0x76, 0xce, 0x3d, 
  0x82, 0xba, 0x17, 0xbe, 0x3e, 0xde, 0x6a, 0x3b, 0x6d, 0xd0, 0x5e, 0xbe, 
  0xd3, 0x0a, 0xae, 0x3d, 0xb1, 0x2f, 0x0e, 0xbe, 0x03, 0x58, 0x34, 0xbe, 
  0xb4, 0x38, 0x90, 0x3d, 0x89, 0xaf, 0xdd, 0xbd, 0xa4, 0xe5, 0x1e, 0x3d, 
  0xdc, 0x34, 0x34, 0xbe, 0x13, 0x2b, 0x54, 0xbd, 0x91, 0x06, 0x11, 0x3e, 
  0xa0, 0x36, 0x1b, 0x3e, 0x26, 0x52, 0xa7, 0x3d, 0xc7, 0x59, 0x07, 0xbd, 
  0x36, 0x98, 0x5f, 0x3e, 0x9f, 0xa2, 0x80, 0xbd, 0xdc, 0xb6, 0xee, 0xbd, 
  0x36, 0x0d, 0x8b, 0x3d, 0xee, 0xc7, 0xe8, 0xbd, 0xa0, 0x75, 0x1c, 0x3e, 
  0x28, 0x08, 0xf4, 0xbd, 0xd1, 0x7b, 0x18, 0xbd, 0x54, 0xf3, 0xa1, 0x3e, 
  0x66, 0x55, 0x15, 0x3e, 0x09, 0xe2, 0x34, 0x3e, 0x4f, 0x4e, 0x67, 0xbd, 
  0xc1, 0xc8, 0x14, 0x3e, 0xc8, 0xe4, 0x34, 0x3e, 0xef, 0x17, 0xf2, 0x3d, 
  0xdb, 0xd0, 0xfb, 0x3d, 0xa3, 0x91, 0x5a, 0x3e, 0xb8, 0x0f, 0x69, 0xbe, 
  0x30, 0x90, 0x54, 0xbd, 0x97, 0x24, 0xad, 0xbb, 0x9f, 0x63, 0xb7, 0xbd, 
  0x44, 0x4b, 0x8d, 0x3e, 0x83, 0xe0, 0xd1, 0x3d, 0x21, 0xbd, 0x0b, 0x3e, 
  0xcc, 0x76, 0x1b, 0x3d, 0xff, 0x83, 0x05, 0xbe, 0x2d, 0x8a, 0x3b, 0x3e, 
  0x96, 0x49, 0xd5, 0xbd, 0xb8, 0x49, 0xef, 0xbd, 0xa9, 0x21, 0xfd, 0xbd, 
  0xdd, 0xc6, 0xa0, 0x3d, 0x6f, 0xe3, 0x41, 0x3e, 0xa1, 0x1b, 0x55, 0x3e, 
  0xb1, 0x1b, 0xc2, 0xbb, 0x0d, 0x5f, 0x22, 0x3c, 0x79, 0xd6, 0x72, 0x3e, 
  0x02, 0xac, 0x1c, 0x3e, 0x5c, 0x0b, 0xdf, 0x3d, 0xa3, 0x64, 0x2c, 0x3d, 
  0x15, 0xea, 0x4d, 0x3e, 0x6b, 0x4f, 0x0a, 0x3c, 0x59, 0xfc, 0x05, 0x3e, 
  0x20, 0xf8, 0x64, 0x3e, 0xca, 0xbd, 0x59, 0x3e, 0xe8, 0xf5, 0x60, 0x3e, 
  0xfb, 0x0f, 0x24, 0x3e, 0x01, 0x2f, 0x1c, 0x3e, 0xc9, 0x08, 0x95, 0xbd, 
  0xfa, 0xb3, 0x99, 0xbd, 0x02, 0xe9, 0x82, 0x3c, 0x30, 0x1c, 0x4c, 0x3e, 
  0xe3, 0x2a, 0x7e, 0xbd, 0x0c, 0x8b, 0x8c, 0x3e, 0xab, 0x3a, 0xc6, 0xbd, 
  0x5d, 0x6e, 0x40, 0x3e, 0xec, 0x14, 0x8e, 0x3e, 0xfa, 0xb9, 0x31, 0x3c, 
  0x6f, 0xa6, 0x28, 0xbd, 0xc5, 0x49, 0xec, 0xbd, 0x93, 0x3b, 0x47, 0x3e, 
  0xbd, 0x7e, 0x15, 0xbc, 0xda, 0xba, 0x80, 0x3e, 0x62, 0xd7, 0x04, 0xbe, 
  0x25, 0x9a, 0x4a, 0xbc, 0x99, 0xad, 0x74, 0x3e, 0xdd, 0xd9, 0x8c, 0x3e, 
  0x5d, 0x3b, 0x15, 0x3e, 0xf9, 0xd4, 0x06, 0xbd, 0x4d, 0x8d, 0x2e, 0x3e, 
  0x45, 0x86, 0xcd, 0x3d, 0xf8, 0xea, 0x55, 0xbd, 0x2b, 0x7a, 0x75, 0x3e, 
  0xeb, 0x9d, 0x39, 0x3e, 0x52, 0x14, 0x5f, 0x3e, 0x68, 0x26, 0x9c, 0xbd, 
  0x96, 0x9c, 0xe3, 0xbd, 0xac, 0xae, 0x8a, 0x3e, 0x64, 0x24, 0x7d, 0x3e, 
  0x75, 0x4f, 0x7f, 0x3e, 0xf5, 0x9f, 0x30, 0x3e, 0x50, 0x9b, 0x04, 0x3d, 
  0xbc, 0x40, 0xe2, 0x3d, 0x36, 0x7b, 0xe3, 0xbd, 0xa4, 0x65, 0x94, 0x3e, 
  0xaf, 0x94, 0x77, 0x3c, 0x02, 0xbd, 0x94, 0x3e, 0x59, 0x5d, 0x13, 0xbd, 
  0x68, 0x7e, 0xbd, 0x3d, 0x8b, 0x3e, 0xa4, 0x3d, 0x24, 0x44, 0x73, 0x3b, 
  0x4f, 0x60, 0xf6, 0xbd, 0x65, 0xb1, 0x70, 0x3e, 0x04, 0x0b, 0x3d, 0xbc, 
  0xfe, 0xfe, 0xff, 0xff, 0x04, 0x00, 0x00, 0x00, 0x0c, 0x00, 0x00, 0x00, 
  0xff, 0xff, 0xff, 0xff, 0x08, 0x00, 0x00, 0x00, 0x18, 0x00, 0x00, 0x00, 
  0x16, 0xff, 0xff, 0xff, 0x04, 0x00, 0x00, 0x00, 0x0c, 0x00, 0x00, 0x00, 
  0xff, 0xff, 0xff, 0xff, 0x06, 0x00, 0x00, 0x00, 0x10, 0x00, 0x00, 0x00, 
  0x2e, 0xff, 0xff, 0xff, 0x04, 0x00, 0x00, 0x00, 0x0c, 0x00, 0x00, 0x00, 
  0xdc, 0x90, 0x0a, 0x3f, 0xd5, 0x8e, 0x04, 0x3f, 0x90, 0xe2, 0x06, 0x3f, 
  0x46, 0xff, 0xff, 0xff, 0x04, 0x00, 0x00, 0x00, 0x60, 0x00, 0x00, 0x00, 
  0x0d, 0x27, 0x9e, 0x3e, 0x9d, 0x2e, 0xbf, 0x3e, 0xad, 0xef, 0x7a, 0x3e, 
  0xc8, 0x67, 0x80, 0x3e, 0xdc, 0xb0, 0xa5, 0x3e, 0x03, 0x19, 0x8d, 0x3e, 
  0x0a, 0xab, 0x3b, 0x3e, 0x9a, 0xd4, 0x8b, 0x3e, 0x35, 0xb9, 0x83, 0x3e, 
  0x8d, 0xa0, 0x4e, 0x3e, 0xc0, 0x45, 0xc4, 0x3e, 0x93, 0x48, 0x9c, 0x3e, 
  0xc2, 0xf9, 0x44, 0x3e, 0x9d, 0x9e, 0x8a, 0x3e, 0x33, 0x4f, 0x4a, 0x3e, 
  0x98, 0x15, 0x31, 0x3e, 0x0d, 0x4f, 0xb3, 0x3e, 0x8f, 0xf0, 0x8f, 0x3e, 
  0x7d, 0x77, 0x8b, 0x3e, 0x7b, 0xc5, 0x84, 0x3e, 0x66, 0x92, 0xb2, 0x3e, 
  0x8f, 0x07, 0xa4, 0x3e, 0x4f, 0x5b, 0x9f, 0x3e, 0xcd, 0x8d, 0x92, 0x3e, 
  0xb2, 0xff, 0xff, 0xff, 0x04, 0x00, 0x00, 0x00, 0x40, 0x00, 0x00, 0x00, 
  0x1b, 0xfb, 0x86, 0x3e, 0x76, 0x7f, 0xe8, 0x3e, 0x75, 0x7f, 0xbb, 0x3e, 
  0xcc, 0x75, 0x55, 0x3e, 0x2a, 0x48, 0xe7, 0x3e, 0x77, 0x01, 0x27, 0x3f, 
  0xd4, 0x9d, 0x97, 0x3e, 0xc1, 0x04, 0x5b, 0x3e, 0x86, 0x22, 0x96, 0x3e, 
  0xde, 0x12, 0x60, 0x3e, 0xdc, 0xa4, 0xfd, 0x3e, 0x44, 0x77, 0x79, 0x3e, 
  0xd7, 0xfc, 0x24, 0x3f, 0x2a, 0xd7, 0xb1, 0x3e, 0x11, 0xdb, 0xb7, 0x3e, 
  0xad, 0x01, 0xa5, 0x3e, 0x00, 0x00, 0x06, 0x00, 0x08, 0x00, 0x04, 0x00, 
  0x06, 0x00, 0x00, 0x00, 0x04, 0x00, 0x00, 0x00, 0x60, 0x00, 0x00, 0x00, 
  0xbc, 0xed, 0x55, 0x3e, 0x5a, 0xd8, 0x6a, 0x3e, 0xa1, 0xd9, 0x96, 0x3e, 
  0x41, 0x43, 0x25, 0x3e, 0x16, 0x95, 0xba, 0x3e, 0x83, 0xf7, 0xf1, 0xbc, 
  0xf0, 0xb2, 0xb2, 0x3e, 0xa3, 0x06, 0xa0, 0x3e, 0x9d, 0x30, 0x43, 0xbd, 
  0x36, 0xd3, 0xf5, 0xbc, 0xe5, 0x7d, 0x94, 0x3e, 0x4a, 0x90, 0xc2, 0x3e, 
  0x6f, 0x6d, 0x0f, 0x3e, 0x21, 0x6d, 0xaa, 0x3e, 0x56, 0x0a, 0x52, 0x3e, 
  0x57, 0x06, 0x58, 0x3e, 0xf4, 0x72, 0x0d, 0x3e, 0xe0, 0x30, 0x8d, 0xbd, 
  0x36, 0x55, 0x8e, 0x3e, 0xbb, 0xe3, 0x7a, 0xbc, 0xf2, 0xcf, 0xa7, 0x3e, 
  0x32, 0x1d, 0xeb, 0x3e, 0xb5, 0xa6, 0x54, 0x3e, 0xd7, 0xd1, 0x80, 0xbc, 
  0x0c, 0xf3, 0xff, 0xff, 0x10, 0xf3, 0xff, 0xff, 0x0f, 0x00, 0x00, 0x00, 
  0x4d, 0x4c, 0x49, 0x52, 0x20, 0x43, 0x6f, 0x6e, 0x76, 0x65, 0x72, 0x74, 
  0x65, 0x64, 0x2e, 0x00, 0x01, 0x00, 0x00, 0x00, 0x14, 0x00, 0x00, 0x00, 
  0x00, 0x00, 0x0e, 0x00, 0x18, 0x00, 0x14, 0x00, 0x10, 0x00, 0x0c, 0x00, 
  0x08, 0x00, 0x04, 0x00, 0x0e, 0x00, 0x00, 0x00, 0x14, 0x00, 0x00, 0x00, 
  0x1c, 0x00, 0x00, 0x00, 0x54, 0x02, 0x00, 0x00, 0x58, 0x02, 0x00, 0x00, 
  0x5c, 0x02, 0x00, 0x00, 0x04, 0x00, 0x00, 0x00, 0x6d, 0x61, 0x69, 0x6e, 
  0x00, 0x00, 0x00, 0x00, 0x09, 0x00, 0x00, 0x00, 0x0c, 0x02, 0x00, 0x00, 
  0xa8, 0x01, 0x00, 0x00, 0x70, 0x01, 0x00, 0x00, 0x34, 0x01, 0x00, 0x00, 
  0xec, 0x00, 0x00, 0x00, 0xc4, 0x00, 0x00, 0x00, 0x90, 0x00, 0x00, 0x00, 
  0x4c, 0x00, 0x00, 0x00, 0x04, 0x00, 0x00, 0x00, 0x86, 0xfe, 0xff, 0xff, 
  0x14, 0x00, 0x00, 0x00, 0x00, 0x00, 0x00, 0x08, 0x10, 0x00, 0x00, 0x00, 
  0x14, 0x00, 0x00, 0x00, 0x04, 0x00, 0x00, 0x00, 0xa4, 0xf3, 0xff, 0xff, 
  0x01, 0x00, 0x00, 0x00, 0x15, 0x00, 0x00, 0x00, 0x03, 0x00, 0x00, 0x00, 
  0x14, 0x00, 0x00, 0x00, 0x09, 0x00, 0x00, 0x00, 0x04, 0x00, 0x00, 0x00, 
  0x00, 0x00, 0x0e, 0x00, 0x1a, 0x00, 0x14, 0x00, 0x10, 0x00, 0x0c, 0x00, 
  0x0b, 0x00, 0x04, 0x00, 0x0e, 0x00, 0x00, 0x00, 0x1c, 0x00, 0x00, 0x00, 
  0x00, 0x00, 0x00, 0x08, 0x1c, 0x00, 0x00, 0x00, 0x20, 0x00, 0x00, 0x00, 
  0x04, 0x00, 0x00, 0x00, 0x00, 0x00, 0x06, 0x00, 0x08, 0x00, 0x07, 0x00, 
  0x06, 0x00, 0x00, 0x00, 0x00, 0x00, 0x00, 0x01, 0x01, 0x00, 0x00, 0x00, 
  0x14, 0x00, 0x00, 0x00, 0x03, 0x00, 0x00, 0x00, 0x13, 0x00, 0x00, 0x00, 
  0x0a, 0x00, 0x00, 0x00, 0x01, 0x00, 0x00, 0x00, 0x0a, 0xff, 0xff, 0xff, 
  0x14, 0x00, 0x00, 0x00, 0x00, 0x00, 0x00, 0x1b, 0x10, 0x00, 0x00, 0x00, 
  0x14, 0x00, 0x00, 0x00, 0x03, 0x00, 0x00, 0x00, 0x28, 0xf4, 0xff, 0xff, 
  0x01, 0x00, 0x00, 0x00, 0x13, 0x00, 0x00, 0x00, 0x02, 0x00, 0x00, 0x00, 
  0x12, 0x00, 0x00, 0x00, 0x0c, 0x00, 0x00, 0x00, 0x6a, 0xff, 0xff, 0xff, 
  0x0c, 0x00, 0x00, 0x00, 0x10, 0x00, 0x00, 0x00, 0x02, 0x00, 0x00, 0x00, 
  0x01, 0x00, 0x00, 0x00, 0x12, 0x00, 0x00, 0x00, 0x02, 0x00, 0x00, 0x00, 
  0x11, 0x00, 0x00, 0x00, 0x05, 0x00, 0x00, 0x00, 0x5e, 0xff, 0xff, 0xff, 
  0x14, 0x00, 0x00, 0x00, 0x00, 0x00, 0x00, 0x01, 0x20, 0x00, 0x00, 0x00, 
  0x24, 0x00, 0x00, 0x00, 0x01, 0x00, 0x00, 0x00, 0x50, 0xff, 0xff, 0xff, 
  0x00, 0x00, 0x00, 0x01, 0x01, 0x00, 0x00, 0x00, 0x01, 0x00, 0x00, 0x00, 
  0x00, 0x00, 0x00, 0x01, 0x01, 0x00, 0x00, 0x00, 0x11, 0x00, 0x00, 0x00, 
  0x03, 0x00, 0x00, 0x00, 0x10, 0x00, 0x00, 0x00, 0x07, 0x00, 0x00, 0x00, 
  0x02, 0x00, 0x00, 0x00, 0x42, 0xff, 0xff, 0xff, 0x10, 0x00, 0x00, 0x00, 
  0x00, 0x00, 0x00, 0x34, 0x0c, 0x00, 0x00, 0x00, 0x10, 0x00, 0x00, 0x00, 
  0xbc, 0xf4, 0xff, 0xff, 0x01, 0x00, 0x00, 0x00, 0x10, 0x00, 0x00, 0x00, 
  0x02, 0x00, 0x00, 0x00, 0x0f, 0x00, 0x00, 0x00, 0x0b, 0x00, 0x00, 0x00, 
  0x00, 0x00, 0x0a, 0x00, 0x10, 0x00, 0x0c, 0x00, 0x08, 0x00, 0x04, 0x00, 
  0x0a, 0x00, 0x00, 0x00, 0x0c, 0x00, 0x00, 0x00, 0x10, 0x00, 0x00, 0x00, 
  0x02, 0x00, 0x00, 0x00, 0x01, 0x00, 0x00, 0x00, 0x0f, 0x00, 0x00, 0x00, 
  0x02, 0x00, 0x00, 0x00, 0x0e, 0x00, 0x00, 0x00, 0x06, 0x00, 0x00, 0x00, 
  0x00, 0x00, 0x0e, 0x00, 0x18, 0x00, 0x14, 0x00, 0x10, 0x00, 0x0c, 0x00, 
  0x0b, 0x00, 0x04, 0x00, 0x0e, 0x00, 0x00, 0x00, 0x20, 0x00, 0x00, 0x00, 
  0x00, 0x00, 0x00, 0x01, 0x2c, 0x00, 0x00, 0x00, 0x30, 0x00, 0x00, 0x00, 
  0x01, 0x00, 0x00, 0x00, 0x0c, 0x00, 0x14, 0x00, 0x13, 0x00, 0x0c, 0x00, 
  0x08, 0x00, 0x07, 0x00, 0x0c, 0x00, 0x00, 0x00, 0x00, 0x00, 0x00, 0x01, 
  0x01, 0x00, 0x00, 0x00, 0x01, 0x00, 0x00, 0x00, 0x00, 0x00, 0x00, 0x01, 
  0x01, 0x00, 0x00, 0x00, 0x0e, 0x00, 0x00, 0x00, 0x03, 0x00, 0x00, 0x00, 
  0x0d, 0x00, 0x00, 0x00, 0x08, 0x00, 0x00, 0x00, 0x03, 0x00, 0x00, 0x00, 
  0x00, 0x00, 0x0e, 0x00, 0x14, 0x00, 0x00, 0x00, 0x10, 0x00, 0x0c, 0x00, 
  0x0b, 0x00, 0x04, 0x00, 0x0e, 0x00, 0x00, 0x00, 0x10, 0x00, 0x00, 0x00, 
  0x00, 0x00, 0x00, 0x34, 0x0c, 0x00, 0x00, 0x00, 0x10, 0x00, 0x00, 0x00, 
  0x88, 0xf5, 0xff, 0xff, 0x01, 0x00, 0x00, 0x00, 0x0d, 0x00, 0x00, 0x00, 
  0x02, 0x00, 0x00, 0x00, 0x00, 0x00, 0x00, 0x00, 0x0b, 0x00, 0x00, 0x00, 
  0x01, 0x00, 0x00, 0x00, 0x15, 0x00, 0x00, 0x00, 0x01, 0x00, 0x00, 0x00, 
  0x00, 0x00, 0x00, 0x00, 0x16, 0x00, 0x00, 0x00, 0x20, 0x0a, 0x00, 0x00, 
  0xcc, 0x09, 0x00, 0x00, 0x78, 0x09, 0x00, 0x00, 0x3c, 0x09, 0x00, 0x00, 
  0x00, 0x09, 0x00, 0x00, 0xc0, 0x08, 0x00, 0x00, 0x68, 0x08, 0x00, 0x00, 
  0x20, 0x08, 0x00, 0x00, 0xd8, 0x07, 0x00, 0x00, 0x98, 0x07, 0x00, 0x00, 
  0x58, 0x07, 0x00, 0x00, 0x18, 0x07, 0x00, 0x00, 0xac, 0x06, 0x00, 0x00, 
  0x24, 0x06, 0x00, 0x00, 0x04, 0x05, 0x00, 0x00, 0x14, 0x04, 0x00, 0x00, 
  0x8c, 0x03, 0x00, 0x00, 0x6c, 0x02, 0x00, 0x00, 0x7c, 0x01, 0x00, 0x00, 
  0x10, 0x01, 0x00, 0x00, 0x60, 0x00, 0x00, 0x00, 0x04, 0x00, 0x00, 0x00, 
  0x4e, 0xf6, 0xff, 0xff, 0x00, 0x00, 0x00, 0x01, 0x14, 0x00, 0x00, 0x00, 
  0x1c, 0x00, 0x00, 0x00, 0x1c, 0x00, 0x00, 0x00, 0x16, 0x00, 0x00, 0x00, 
  0x34, 0x00, 0x00, 0x00, 0x02, 0x00, 0x00, 0x00, 0xff, 0xff, 0xff, 0xff, 
  0x03, 0x00, 0x00, 0x00, 0x34, 0xf6, 0xff, 0xff, 0x1b, 0x00, 0x00, 0x00, 
  0x53, 0x74, 0x61, 0x74, 0x65, 0x66, 0x75, 0x6c, 0x50, 0x61, 0x72, 0x74, 
  0x69, 0x74, 0x69, 0x6f, 0x6e, 0x65, 0x64, 0x43, 0x61, 0x6c, 0x6c, 0x5f, 
  0x31, 0x3a, 0x30, 0x00, 0x02, 0x00, 0x00, 0x00, 0x01, 0x00, 0x00, 0x00, 
  0x03, 0x00, 0x00, 0x00, 0xa6, 0xf6, 0xff, 0xff, 0x00, 0x00, 0x00, 0x01, 
  0x14, 0x00, 0x00, 0x00, 0x1c, 0x00, 0x00, 0x00, 0x1c, 0x00, 0x00, 0x00, 
  0x15, 0x00, 0x00, 0x00, 0x88, 0x00, 0x00, 0x00, 0x02, 0x00, 0x00, 0x00, 
  0xff, 0xff, 0xff, 0xff, 0x18, 0x00, 0x00, 0x00, 0x8c, 0xf6, 0xff, 0xff, 
  0x6d, 0x00, 0x00, 0x00, 0x43, 0x4e, 0x4e, 0x31, 0x44, 0x5f, 0x54, 0x65, 
  0x6d, 0x70, 0x65, 0x72, 0x61, 0x74, 0x75, 0x72, 0x65, 0x5f, 0x31, 0x2f, 
  0x64, 0x65, 0x6e, 0x73, 0x65, 0x5f, 0x31, 0x5f, 0x31, 0x2f, 0x4d, 0x61, 
  0x74, 0x4d, 0x75, 0x6c, 0x3b, 0x43, 0x4e, 0x4e, 0x31, 0x44, 0x5f, 0x54, 
  0x65, 0x6d, 0x70, 0x65, 0x72, 0x61, 0x74, 0x75, 0x72, 0x65, 0x5f, 0x31, 
  0x2f, 0x64, 0x65, 0x6e, 0x73, 0x65, 0x5f, 0x31, 0x5f, 0x31, 0x2f, 0x52, 
  0x65, 0x6c, 0x75, 0x3b, 0x43, 0x4e, 0x4e, 0x31, 0x44, 0x5f, 0x54, 0x65, 
  0x6d, 0x70, 0x65, 0x72, 0x61, 0x74, 0x75, 0x72, 0x65, 0x5f, 0x31, 0x2f, 
  0x64, 0x65, 0x6e, 0x73, 0x65, 0x5f, 0x31, 0x5f, 0x31, 0x2f, 0x42, 0x69, 
  0x61, 0x73, 0x41, 0x64, 0x64, 0x00, 0x00, 0x00, 0x02, 0x00, 0x00, 0x00, 
  0x01, 0x00, 0x00, 0x00, 0x18, 0x00, 0x00, 0x00, 0x52, 0xf7, 0xff, 0xff, 
  0x00, 0x00, 0x00, 0x01, 0x14, 0x00, 0x00, 0x00, 0x1c, 0x00, 0x00, 0x00, 
  0x1c, 0x00, 0x00, 0x00, 0x14, 0x00, 0x00, 0x00, 0x44, 0x00, 0x00, 0x00, 
  0x02, 0x00, 0x00, 0x00, 0xff, 0xff, 0xff, 0xff, 0x10, 0x00, 0x00, 0x00, 
  0x38, 0xf7, 0xff, 0xff, 0x2a, 0x00, 0x00, 0x00, 0x43, 0x4e, 0x4e, 0x31, 
  0x44, 0x5f, 0x54, 0x65, 0x6d, 0x70, 0x65, 0x72, 0x61, 0x74, 0x75, 0x72, 
  0x65, 0x5f, 0x31, 0x2f, 0x67, 0x6c, 0x6f, 0x62, 0x61, 0x6c, 0x5f, 0x61, 
  0x76, 0x67, 0x5f, 0x70, 0x6f, 0x6f, 0x6c, 0x5f, 0x31, 0x2f, 0x4d, 0x65, 
  0x61, 0x6e, 0x00, 0x00, 0x02, 0x00, 0x00, 0x00, 0x01, 0x00, 0x00, 0x00, 
  0x10, 0x00, 0x00, 0x00, 0xba, 0xf7, 0xff, 0xff, 0x00, 0x00, 0x00, 0x01, 
  0x14, 0x00, 0x00, 0x00, 0x20, 0x00, 0x00, 0x00, 0x20, 0x00, 0x00, 0x00, 
  0x13, 0x00, 0x00, 0x00, 0xc4, 0x00, 0x00, 0x00, 0x03, 0x00, 0x00, 0x00, 
  0xff, 0xff, 0xff, 0xff, 0x06, 0x00, 0x00, 0x00, 0x10, 0x00, 0x00, 0x00, 
  0xa4, 0xf7, 0xff, 0xff, 0xa4, 0x00, 0x00, 0x00, 0x43, 0x4e, 0x4e, 0x31, 
  0x44, 0x5f, 0x54, 0x65, 0x6d, 0x70, 0x65, 0x72, 0x61, 0x74, 0x75, 0x72, 
  0x65, 0x5f, 0x31, 0x2f, 0x63, 0x6f, 0x6e, 0x76, 0x31, 0x64, 0x5f, 0x32, 
  0x5f, 0x31, 0x2f, 0x52, 0x65, 0x6c, 0x75, 0x3b, 0x43, 0x4e, 0x4e, 0x31, 
  0x44, 0x5f, 0x54, 0x65, 0x6d, 0x70, 0x65, 0x72, 0x61, 0x74, 0x75, 0x72, 
  0x65, 0x5f, 0x31, 0x2f, 0x63, 0x6f, 0x6e, 0x76, 0x31, 0x64, 0x5f, 0x32, 
  0x5f, 0x31, 0x2f, 0x42, 0x69, 0x61, 0x73, 0x41, 0x64, 0x64, 0x3b, 0x43, 
  0x4e, 0x4e, 0x31, 0x44, 0x5f, 0x54, 0x65, 0x6d, 0x70, 0x65, 0x72, 0x61, 
  0x74, 0x75, 0x72, 0x65, 0x5f, 0x31, 0x2f, 0x63, 0x6f, 0x6e, 0x76, 0x31, 
  0x64, 0x5f, 0x32, 0x5f, 0x31, 0x2f, 0x63, 0x6f, 0x6e, 0x76, 0x6f, 0x6c, 
  0x75, 0x74, 0x69, 0x6f, 0x6e, 0x2f, 0x53, 0x71, 0x75, 0x65, 0x65, 0x7a, 
  0x65, 0x3b, 0x43, 0x4e, 0x4e, 0x31, 0x44, 0x5f, 0x54, 0x65, 0x6d, 0x70, 
  0x65, 0x72, 0x61, 0x74, 0x75, 0x72, 0x65, 0x5f, 0x31, 0x2f, 0x63, 0x6f, 
  0x6e, 0x76, 0x31, 0x64, 0x5f, 0x32, 0x5f, 0x31, 0x2f, 0x53, 0x71, 0x75, 
  0x65, 0x65, 0x7a, 0x65, 0x00, 0x00, 0x00, 0x00, 0x03, 0x00, 0x00, 0x00, 
  0x01, 0x00, 0x00, 0x00, 0x06, 0x00, 0x00, 0x00, 0x10, 0x00, 0x00, 0x00, 
  0xa6, 0xf8, 0xff, 0xff, 0x00, 0x00, 0x00, 0x01, 0x14, 0x00, 0x00, 0x00, 
  0x24, 0x00, 0x00, 0x00, 0x24, 0x00, 0x00, 0x00, 0x12, 0x00, 0x00, 0x00, 
  0xf0, 0x00, 0x00, 0x00, 0x04, 0x00, 0x00, 0x00, 0xff, 0xff, 0xff, 0xff, 
  0x01, 0x00, 0x00, 0x00, 0x06, 0x00, 0x00, 0x00, 0x10, 0x00, 0x00, 0x00, 
  0x94, 0xf8, 0xff, 0xff, 0xcf, 0x00, 0x00, 0x00, 0x43, 0x4e, 0x4e, 0x31, 
  0x44, 0x5f, 0x54, 0x65, 0x6d, 0x70, 0x65, 0x72, 0x61, 0x74, 0x75, 0x72, 
  0x65, 0x5f, 0x31, 0x2f, 0x63, 0x6f, 0x6e, 0x76, 0x31, 0x64, 0x5f, 0x32, 
  0x5f, 0x31, 0x2f, 0x52, 0x65, 0x6c, 0x75, 0x3b, 0x43, 0x4e, 0x4e, 0x31, 
  0x44, 0x5f, 0x54, 0x65, 0x6d, 0x70, 0x65, 0x72, 0x61, 0x74, 0x75, 0x72, 
  0x65, 0x5f, 0x31, 0x2f, 0x63, 0x6f, 0x6e, 0x76, 0x31, 0x64, 0x5f, 0x32, 
  0x5f, 0x31, 0x2f, 0x42, 0x69, 0x61, 0x73, 0x41, 0x64, 0x64, 0x3b, 0x43, 
  0x4e, 0x4e, 0x31, 0x44, 0x5f, 0x54, 0x65, 0x6d, 0x70, 0x65, 0x72, 0x61, 
  0x74, 0x75, 0x72, 0x65, 0x5f, 0x31, 0x2f, 0x63, 0x6f, 0x6e, 0x76, 0x31, 
  0x64, 0x5f, 0x32, 0x5f, 0x31, 0x2f, 0x63, 0x6f, 0x6e, 0x76, 0x6f, 0x6c, 
  0x75, 0x74, 0x69, 0x6f, 0x6e, 0x2f, 0x53, 0x71, 0x75, 0x65, 0x65, 0x7a, 
  0x65, 0x3b, 0x43, 0x4e, 0x4e, 0x31, 0x44, 0x5f, 0x54, 0x65, 0x6d, 0x70, 
  0x65, 0x72, 0x61, 0x74, 0x75, 0x72, 0x65, 0x5f, 0x31, 0x2f, 0x63, 0x6f, 
  0x6e, 0x76, 0x31, 0x64, 0x5f, 0x32, 0x5f, 0x31, 0x2f, 0x53, 0x71, 0x75, 
  0x65, 0x65, 0x7a, 0x65, 0x3b, 0x43, 0x4e, 0x4e, 0x31, 0x44, 0x5f, 0x54, 
  0x65, 0x6d, 0x70, 0x65, 0x72, 0x61, 0x74, 0x75, 0x72, 0x65, 0x5f, 0x31, 
  0x2f, 0x63, 0x6f, 0x6e, 0x76, 0x31, 0x64, 0x5f, 0x32, 0x5f, 0x31, 0x2f, 
  0x63, 0x6f, 0x6e, 0x76, 0x6f, 0x6c, 0x75, 0x74, 0x69, 0x6f, 0x6e, 0x00, 
  0x04, 0x00, 0x00, 0x00, 0x01, 0x00, 0x00, 0x00, 0x01, 0x00, 0x00, 0x00, 
  0x06, 0x00, 0x00, 0x00, 0x10, 0x00, 0x00, 0x00, 0xc2, 0xf9, 0xff, 0xff, 
  0x00, 0x00, 0x00, 0x01, 0x14, 0x00, 0x00, 0x00, 0x24, 0x00, 0x00, 0x00, 
  0x24, 0x00, 0x00, 0x00, 0x11, 0x00, 0x00, 0x00, 0x58, 0x00, 0x00, 0x00, 
  0x04, 0x00, 0x00, 0x00, 0xff, 0xff, 0xff, 0xff, 0x01, 0x00, 0x00, 0x00, 
  0x08, 0x00, 0x00, 0x00, 0x18, 0x00, 0x00, 0x00, 0xb0, 0xf9, 0xff, 0xff, 
  0x35, 0x00, 0x00, 0x00, 0x43, 0x4e, 0x4e, 0x31, 0x44, 0x5f, 0x54, 0x65, 
  0x6d, 0x70, 0x65, 0x72, 0x61, 0x74, 0x75, 0x72, 0x65, 0x5f, 0x31, 0x2f, 
  0x63, 0x6f, 0x6e, 0x76, 0x31, 0x64, 0x5f, 0x32, 0x5f, 0x31, 0x2f, 0x63, 
  0x6f, 0x6e, 0x76, 0x6f, 0x6c, 0x75, 0x74, 0x69, 0x6f, 0x6e, 0x2f, 0x45, 
  0x78, 0x70, 0x61, 0x6e, 0x64, 0x44, 0x69, 0x6d, 0x73, 0x00, 0x00, 0x00, 
  0x04, 0x00, 0x00, 0x00, 0x01, 0x00, 0x00, 0x00, 0x01, 0x00, 0x00, 0x00, 
  0x08, 0x00, 0x00, 0x00, 0x18, 0x00, 0x00, 0x00, 0x46, 0xfa, 0xff, 0xff, 
  0x00, 0x00, 0x00, 0x01, 0x14, 0x00, 0x00, 0x00, 0x20, 0x00, 0x00, 0x00, 
  0x20, 0x00, 0x00, 0x00, 0x10, 0x00, 0x00, 0x00, 0xc4, 0x00, 0x00, 0x00, 
  0x03, 0x00, 0x00, 0x00, 0xff, 0xff, 0xff, 0xff, 0x08, 0x00, 0x00, 0x00, 
  0x18, 0x00, 0x00, 0x00, 0x30, 0xfa, 0xff, 0xff, 0xa4, 0x00, 0x00, 0x00, 
  0x43, 0x4e, 0x4e, 0x31, 0x44, 0x5f, 0x54, 0x65, 0x6d, 0x70, 0x65, 0x72, 
  0x61, 0x74, 0x75, 0x72, 0x65, 0x5f, 0x31, 0x2f, 0x63, 0x6f, 0x6e, 0x76, 
  0x31, 0x64, 0x5f, 0x31, 0x5f, 0x31, 0x2f, 0x52, 0x65, 0x6c, 0x75, 0x3b, 
  0x43, 0x4e, 0x4e, 0x31, 0x44, 0x5f, 0x54, 0x65, 0x6d, 0x70, 0x65, 0x72, 
  0x61, 0x74, 0x75, 0x72, 0x65, 0x5f, 0x31, 0x2f, 0x63, 0x6f, 0x6e, 0x76, 
  0x31, 0x64, 0x5f, 0x31, 0x5f, 0x31, 0x2f, 0x42, 0x69, 0x61, 0x73, 0x41, 
  0x64, 0x64, 0x3b, 0x43, 0x4e, 0x4e, 0x31, 0x44, 0x5f, 0x54, 0x65, 0x6d, 
  0x70, 0x65, 0x72, 0x61, 0x74, 0x75, 0x72, 0x65, 0x5f, 0x31, 0x2f, 0x63, 
  0x6f, 0x6e, 0x76, 0x31, 0x64, 0x5f, 0x31, 0x5f, 0x31, 0x2f, 0x63, 0x6f, 
  0x6e, 0x76, 0x6f, 0x6c, 0x75, 0x74, 0x69, 0x6f, 0x6e, 0x2f, 0x53, 0x71, 
  0x75, 0x65, 0x65, 0x7a, 0x65, 0x3b, 0x43, 0x4e, 0x4e, 0x31, 0x44, 0x5f, 
  0x54, 0x65, 0x6d, 0x70, 0x65, 0x72, 0x61, 0x74, 0x75, 0x72, 0x65, 0x5f, 
  0x31, 0x2f, 0x63, 0x6f, 0x6e, 0x76, 0x31, 0x64, 0x5f, 0x31, 0x5f, 0x31, 
  0x2f, 0x53, 0x71, 0x75, 0x65, 0x65, 0x7a, 0x65, 0x00, 0x00, 0x00, 0x00, 
  0x03, 0x00, 0x00, 0x00, 0x01, 0x00, 0x00, 0x00, 0x08, 0x00, 0x00, 0x00, 
  0x18, 0x00, 0x00, 0x00, 0x32, 0xfb, 0xff, 0xff, 0x00, 0x00, 0x00, 0x01, 
  0x14, 0x00, 0x00, 0x00, 0x24, 0x00, 0x00, 0x00, 0x24, 0x00, 0x00, 0x00, 
  0x0f, 0x00, 0x00, 0x00, 0xf0, 0x00, 0x00, 0x00, 0x04, 0x00, 0x00, 0x00, 
  0xff, 0xff, 0xff, 0xff, 0x01, 0x00, 0x00, 0x00, 0x08, 0x00, 0x00, 0x00, 
  0x18, 0x00, 0x00, 0x00, 0x20, 0xfb, 0xff, 0xff, 0xcf, 0x00, 0x00, 0x00, 
  0x43, 0x4e, 0x4e, 0x31, 0x44, 0x5f, 0x54, 0x65, 0x6d, 0x70, 0x65, 0x72, 
  0x61, 0x74, 0x75, 0x72, 0x65, 0x5f, 0x31, 0x2f, 0x63, 0x6f, 0x6e, 0x76, 
  0x31, 0x64, 0x5f, 0x31, 0x5f, 0x31, 0x2f, 0x52, 0x65, 0x6c, 0x75, 0x3b, 
  0x43, 0x4e, 0x4e, 0x31, 0x44, 0x5f, 0x54, 0x65, 0x6d, 0x70, 0x65, 0x72, 
  0x61, 0x74, 0x75, 0x72, 0x65, 0x5f, 0x31, 0x2f, 0x63, 0x6f, 0x6e, 0x76, 
  0x31, 0x64, 0x5f, 0x31, 0x5f, 0x31, 0x2f, 0x42, 0x69, 0x61, 0x73, 0x41, 
  0x64, 0x64, 0x3b, 0x43, 0x4e, 0x4e, 0x31, 0x44, 0x5f, 0x54, 0x65, 0x6d, 
  0x70, 0x65, 0x72, 0x61, 0x74, 0x75, 0x72, 0x65, 0x5f, 0x31, 0x2f, 0x63, 
  0x6f, 0x6e, 0x76, 0x31, 0x64, 0x5f, 0x31, 0x5f, 0x31, 0x2f, 0x63, 0x6f, 
  0x6e, 0x76, 0x6f, 0x6c, 0x75, 0x74, 0x69, 0x6f, 0x6e, 0x2f, 0x53, 0x71, 
  0x75, 0x65, 0x65, 0x7a, 0x65, 0x3b, 0x43, 0x4e, 0x4e, 0x31, 0x44, 0x5f, 
  0x54, 0x65, 0x6d, 0x70, 0x65, 0x72, 0x61, 0x74, 0x75, 0x72, 0x65, 0x5f, 
  0x31, 0x2f, 0x63, 0x6f, 0x6e, 0x76, 0x31, 0x64, 0x5f, 0x31, 0x5f, 0x31, 
  0x2f, 0x53, 0x71, 0x75, 0x65, 0x65, 0x7a, 0x65, 0x3b, 0x43, 0x4e, 0x4e, 
  0x31, 0x44, 0x5f, 0x54, 0x65, 0x6d, 0x70, 0x65, 0x72, 0x61, 0x74, 0x75, 
  0x72, 0x65, 0x5f, 0x31, 0x2f, 0x63, 0x6f, 0x6e, 0x76, 0x31, 0x64, 0x5f, 
  0x31, 0x5f, 0x31, 0x2f, 0x63, 0x6f, 0x6e, 0x76, 0x6f, 0x6c, 0x75, 0x74, 
  0x69, 0x6f, 0x6e, 0x00, 0x04, 0x00, 0x00, 0x00, 0x01, 0x00, 0x00, 0x00, 
  0x01, 0x00, 0x00, 0x00, 0x08, 0x00, 0x00, 0x00, 0x18, 0x00, 0x00, 0x00, 
  0x4e, 0xfc, 0xff, 0xff, 0x00, 0x00, 0x00, 0x01, 0x14, 0x00, 0x00, 0x00, 
  0x24, 0x00, 0x00, 0x00, 0x24, 0x00, 0x00, 0x00, 0x0e, 0x00, 0x00, 0x00, 
  0x58, 0x00, 0x00, 0x00, 0x04, 0x00, 0x00, 0x00, 0xff, 0xff, 0xff, 0xff, 
  0x01, 0x00, 0x00, 0x00, 0x0a, 0x00, 0x00, 0x00, 0x04, 0x00, 0x00, 0x00, 
  0x3c, 0xfc, 0xff, 0xff, 0x35, 0x00, 0x00, 0x00, 0x43, 0x4e, 0x4e, 0x31, 
  0x44, 0x5f, 0x54, 0x65, 0x6d, 0x70, 0x65, 0x72, 0x61, 0x74, 0x75, 0x72, 
  0x65, 0x5f, 0x31, 0x2f, 0x63, 0x6f, 0x6e, 0x76, 0x31, 0x64, 0x5f, 0x31, 
  0x5f, 0x31, 0x2f, 0x63, 0x6f, 0x6e, 0x76, 0x6f, 0x6c, 0x75, 0x74, 0x69, 
  0x6f, 0x6e, 0x2f, 0x45, 0x78, 0x70, 0x61, 0x6e, 0x64, 0x44, 0x69, 0x6d, 
  0x73, 0x00, 0x00, 0x00, 0x04, 0x00, 0x00, 0x00, 0x01, 0x00, 0x00, 0x00, 
  0x01, 0x00, 0x00, 0x00, 0x0a, 0x00, 0x00, 0x00, 0x04, 0x00, 0x00, 0x00, 
  0x1e, 0xfe, 0xff, 0xff, 0x00, 0x00, 0x00, 0x01, 0x14, 0x00, 0x00, 0x00, 
  0x14, 0x00, 0x00, 0x00, 0x0d, 0x00, 0x00, 0x00, 0x00, 0x00, 0x00, 0x02, 
  0x4c, 0x00, 0x00, 0x00, 0xac, 0xfc, 0xff, 0xff, 0x3c, 0x00, 0x00, 0x00, 
  0x43, 0x4e, 0x4e, 0x31, 0x44, 0x5f, 0x54, 0x65, 0x6d, 0x70, 0x65, 0x72, 
  0x61, 0x74, 0x75, 0x72, 0x65, 0x5f, 0x31, 0x2f, 0x67, 0x6c, 0x6f, 0x62, 
  0x61, 0x6c, 0x5f, 0x61, 0x76, 0x67, 0x5f, 0x70, 0x6f, 0x6f, 0x6c, 0x5f, 
  0x31, 0x2f, 0x4d, 0x65, 0x61, 0x6e, 0x2f, 0x72, 0x65, 0x64, 0x75, 0x63, 
  0x74, 0x69, 0x6f, 0x6e, 0x5f, 0x69, 0x6e, 0x64, 0x69, 0x63, 0x65, 0x73, 
  0x00, 0x00, 0x00, 0x00, 0x00, 0x00, 0x00, 0x00, 0x86, 0xfe, 0xff, 0xff, 
  0x00, 0x00, 0x00, 0x01, 0x14, 0x00, 0x00, 0x00, 0x14, 0x00, 0x00, 0x00, 
  0x0c, 0x00, 0x00, 0x00, 0x00, 0x00, 0x00, 0x02, 0x20, 0x00, 0x00, 0x00, 
  0x14, 0xfd, 0xff, 0xff, 0x10, 0x00, 0x00, 0x00, 0x61, 0x72, 0x69, 0x74, 
  0x68, 0x2e, 0x63, 0x6f, 0x6e, 0x73, 0x74, 0x61, 0x6e, 0x74, 0x31, 0x30, 
  0x00, 0x00, 0x00, 0x00, 0x00, 0x00, 0x00, 0x00, 0xc6, 0xfd, 0xff, 0xff, 
  0x00, 0x00, 0x00, 0x01, 0x10, 0x00, 0x00, 0x00, 0x10, 0x00, 0x00, 0x00, 
  0x0b, 0x00, 0x00, 0x00, 0x1c, 0x00, 0x00, 0x00, 0x4c, 0xfd, 0xff, 0xff, 
  0x0f, 0x00, 0x00, 0x00, 0x61, 0x72, 0x69, 0x74, 0x68, 0x2e, 0x63, 0x6f, 
  0x6e, 0x73, 0x74, 0x61, 0x6e, 0x74, 0x39, 0x00, 0x02, 0x00, 0x00, 0x00, 
  0x18, 0x00, 0x00, 0x00, 0x10, 0x00, 0x00, 0x00, 0x02, 0xfe, 0xff, 0xff, 
  0x00, 0x00, 0x00, 0x01, 0x10, 0x00, 0x00, 0x00, 0x10, 0x00, 0x00, 0x00, 
  0x0a, 0x00, 0x00, 0x00, 0x1c, 0x00, 0x00, 0x00, 0x88, 0xfd, 0xff, 0xff, 
  0x0f, 0x00, 0x00, 0x00, 0x61, 0x72, 0x69, 0x74, 0x68, 0x2e, 0x63, 0x6f, 
  0x6e, 0x73, 0x74, 0x61, 0x6e, 0x74, 0x38, 0x00, 0x02, 0x00, 0x00, 0x00, 
  0x03, 0x00, 0x00, 0x00, 0x18, 0x00, 0x00, 0x00, 0x3e, 0xfe, 0xff, 0xff, 
  0x00, 0x00, 0x00, 0x01, 0x10, 0x00, 0x00, 0x00, 0x10, 0x00, 0x00, 0x00, 
  0x09, 0x00, 0x00, 0x00, 0x1c, 0x00, 0x00, 0x00, 0xc4, 0xfd, 0xff, 0xff, 
  0x0f, 0x00, 0x00, 0x00, 0x61, 0x72, 0x69, 0x74, 0x68, 0x2e, 0x63, 0x6f, 
  0x6e, 0x73, 0x74, 0x61, 0x6e, 0x74, 0x37, 0x00, 0x04, 0x00, 0x00, 0x00, 
  0x18, 0x00, 0x00, 0x00, 0x01, 0x00, 0x00, 0x00, 0x03, 0x00, 0x00, 0x00, 
  0x04, 0x00, 0x00, 0x00, 0x82, 0xfe, 0xff, 0xff, 0x00, 0x00, 0x00, 0x01, 
  0x10, 0x00, 0x00, 0x00, 0x10, 0x00, 0x00, 0x00, 0x08, 0x00, 0x00, 0x00, 
  0x1c, 0x00, 0x00, 0x00, 0x08, 0xfe, 0xff, 0xff, 0x0f, 0x00, 0x00, 0x00, 
  0x61, 0x72, 0x69, 0x74, 0x68, 0x2e, 0x63, 0x6f, 0x6e, 0x73, 0x74, 0x61, 
  0x6e, 0x74, 0x36, 0x00, 0x04, 0x00, 0x00, 0x00, 0x10, 0x00, 0x00, 0x00, 
  0x01, 0x00, 0x00, 0x00, 0x03, 0x00, 0x00, 0x00, 0x18, 0x00, 0x00, 0x00, 
  0xc2, 0xff, 0xff, 0xff, 0x00, 0x00, 0x00, 0x01, 0x14, 0x00, 0x00, 0x00, 
  0x14, 0x00, 0x00, 0x00, 0x07, 0x00, 0x00, 0x00, 0x00, 0x00, 0x00, 0x02, 
  0x1c, 0x00, 0x00, 0x00, 0x50, 0xfe, 0xff, 0xff, 0x0f, 0x00, 0x00, 0x00, 
  0x61, 0x72, 0x69, 0x74, 0x68, 0x2e, 0x63, 0x6f, 0x6e, 0x73, 0x74, 0x61, 
  0x6e, 0x74, 0x35, 0x00, 0x01, 0x00, 0x00, 0x00, 0x03, 0x00, 0x00, 0x00, 
  0x00, 0x00, 0x16, 0x00, 0x1c, 0x00, 0x18, 0x00, 0x17, 0x00, 0x10, 0x00, 
  0x0c, 0x00, 0x08, 0x00, 0x00, 0x00, 0x00, 0x00, 0x00, 0x00, 0x07, 0x00, 
  0x16, 0x00, 0x00, 0x00, 0x00, 0x00, 0x00, 0x01, 0x14, 0x00, 0x00, 0x00, 
  0x14, 0x00, 0x00, 0x00, 0x06, 0x00, 0x00, 0x00, 0x00, 0x00, 0x00, 0x02, 
  0x1c, 0x00, 0x00, 0x00, 0xa4, 0xfe, 0xff, 0xff, 0x0f, 0x00, 0x00, 0x00, 
  0x61, 0x72, 0x69, 0x74, 0x68, 0x2e, 0x63, 0x6f, 0x6e, 0x73, 0x74, 0x61, 
  0x6e, 0x74, 0x34, 0x00, 0x01, 0x00, 0x00, 0x00, 0x03, 0x00, 0x00, 0x00, 
  0x56, 0xff, 0xff, 0xff, 0x00, 0x00, 0x00, 0x01, 0x10, 0x00, 0x00, 0x00, 
  0x10, 0x00, 0x00, 0x00, 0x05, 0x00, 0x00, 0x00, 0x1c, 0x00, 0x00, 0x00, 
  0xdc, 0xfe, 0xff, 0xff, 0x0f, 0x00, 0x00, 0x00, 0x61, 0x72, 0x69, 0x74, 
  0x68, 0x2e, 0x63, 0x6f, 0x6e, 0x73, 0x74, 0x61, 0x6e, 0x74, 0x33, 0x00, 
  0x01, 0x00, 0x00, 0x00, 0x03, 0x00, 0x00, 0x00, 0x8e, 0xff, 0xff, 0xff, 
  0x00, 0x00, 0x00, 0x01, 0x10, 0x00, 0x00, 0x00, 0x10, 0x00, 0x00, 0x00, 
  0x04, 0x00, 0x00, 0x00, 0x1c, 0x00, 0x00, 0x00, 0x14, 0xff, 0xff, 0xff, 
  0x0f, 0x00, 0x00, 0x00, 0x61, 0x72, 0x69, 0x74, 0x68, 0x2e, 0x63, 0x6f, 
  0x6e, 0x73, 0x74, 0x61, 0x6e, 0x74, 0x32, 0x00, 0x01, 0x00, 0x00, 0x00, 
  0x18, 0x00, 0x00, 0x00, 0xc6, 0xff, 0xff, 0xff, 0x00, 0x00, 0x00, 0x01, 
  0x10, 0x00, 0x00, 0x00, 0x10, 0x00, 0x00, 0x00, 0x03, 0x00, 0x00, 0x00, 
  0x1c, 0x00, 0x00, 0x00, 0x4c, 0xff, 0xff, 0xff, 0x0f, 0x00, 0x00, 0x00, 
  0x61, 0x72, 0x69, 0x74, 0x68, 0x2e, 0x63, 0x6f, 0x6e, 0x73, 0x74, 0x61, 
  0x6e, 0x74, 0x31, 0x00, 0x01, 0x00, 0x00, 0x00, 0x10, 0x00, 0x00, 0x00, 
  0x00, 0x00, 0x16, 0x00, 0x18, 0x00, 0x14, 0x00, 0x00, 0x00, 0x10, 0x00, 
  0x0c, 0x00, 0x08, 0x00, 0x00, 0x00, 0x00, 0x00, 0x00, 0x00, 0x07, 0x00, 
  0x16, 0x00, 0x00, 0x00, 0x00, 0x00, 0x00, 0x01, 0x10, 0x00, 0x00, 0x00, 
  0x10, 0x00, 0x00, 0x00, 0x02, 0x00, 0x00, 0x00, 0x1c, 0x00, 0x00, 0x00, 
  0x9c, 0xff, 0xff, 0xff, 0x0e, 0x00, 0x00, 0x00, 0x61, 0x72, 0x69, 0x74, 
  0x68, 0x2e, 0x63, 0x6f, 0x6e, 0x73, 0x74, 0x61, 0x6e, 0x74, 0x00, 0x00, 
  0x01, 0x00, 0x00, 0x00, 0x18, 0x00, 0x00, 0x00, 0x00, 0x00, 0x16, 0x00, 
  0x1c, 0x00, 0x18, 0x00, 0x00, 0x00, 0x14, 0x00, 0x10, 0x00, 0x0c, 0x00, 
  0x00, 0x00, 0x00, 0x00, 0x08, 0x00, 0x07, 0x00, 0x16, 0x00, 0x00, 0x00, 
  0x00, 0x00, 0x00, 0x01, 0x14, 0x00, 0x00, 0x00, 0x24, 0x00, 0x00, 0x00, 
  0x24, 0x00, 0x00, 0x00, 0x01, 0x00, 0x00, 0x00, 0x44, 0x00, 0x00, 0x00, 
  0x03, 0x00, 0x00, 0x00, 0xff, 0xff, 0xff, 0xff, 0x0a, 0x00, 0x00, 0x00, 
  0x04, 0x00, 0x00, 0x00, 0x04, 0x00, 0x04, 0x00, 0x04, 0x00, 0x00, 0x00, 
  0x21, 0x00, 0x00, 0x00, 0x73, 0x65, 0x72, 0x76, 0x69, 0x6e, 0x67, 0x5f, 
  0x64, 0x65, 0x66, 0x61, 0x75, 0x6c, 0x74, 0x5f, 0x6b, 0x65, 0x72, 0x61, 
  0x73, 0x5f, 0x74, 0x65, 0x6e, 0x73, 0x6f, 0x72, 0x5f, 0x36, 0x34, 0x3a, 
  0x30, 0x00, 0x00, 0x00, 0x03, 0x00, 0x00, 0x00, 0x01, 0x00, 0x00, 0x00, 
  0x0a, 0x00, 0x00, 0x00, 0x04, 0x00, 0x00, 0x00, 0x05, 0x00, 0x00, 0x00, 
  0x50, 0x00, 0x00, 0x00, 0x34, 0x00, 0x00, 0x00, 0x24, 0x00, 0x00, 0x00, 
  0x14, 0x00, 0x00, 0x00, 0x04, 0x00, 0x00, 0x00, 0xd0, 0xff, 0xff, 0xff, 
  0x09, 0x00, 0x00, 0x00, 0x00, 0x00, 0x00, 0x09, 0xdc, 0xff, 0xff, 0xff, 
  0x28, 0x00, 0x00, 0x00, 0x00, 0x00, 0x00, 0x28, 0xe8, 0xff, 0xff, 0xff, 
  0x16, 0x00, 0x00, 0x00, 0x00, 0x00, 0x00, 0x16, 0xf4, 0xff, 0xff, 0xff, 
  0x03, 0x00, 0x00, 0x00, 0x00, 0x00, 0x00, 0x03, 0x0c, 0x00, 0x0c, 0x00, 
  0x0b, 0x00, 0x00, 0x00, 0x00, 0x00, 0x04, 0x00, 0x0c, 0x00, 0x00, 0x00, 
  0x46, 0x00, 0x00, 0x00, 0x00, 0x00, 0x00, 0x46, 
};
const unsigned int temperature_model_len = 12056;

#endif // TEMPERATURE_MODEL_H
