// Temperature Prediction Model - TinyML (MLP)
// Auto-generated file - Do not edit manually
// Model trained on AHT20 + BMP280 sensor data

#ifndef TEMPERATURE_MODEL_H
#define TEMPERATURE_MODEL_H

// Model information
#define WINDOW_SIZE 10
#define NUM_FEATURES 4
#define NUM_HORIZONS 3

// Feature names
const char* feature_names[] = {
    "Temp_AHT20_C",
    "Umid_AHT20_pct",
    "Temp_BMP280_C",
    "Press_BMP280_hPa"
};

// Horizon names
const char* horizon_names[] = {
    "5 minutes",
    "10 minutes",
    "15 minutes"
};

const unsigned char temperature_model[] = {
  0x1c, 0x00, 0x00, 0x00, 0x54, 0x46, 0x4c, 0x33, 0x14, 0x00, 0x20, 0x00, 
  0x1c, 0x00, 0x18, 0x00, 0x14, 0x00, 0x10, 0x00, 0x0c, 0x00, 0x00, 0x00, 
  0x08, 0x00, 0x04, 0x00, 0x14, 0x00, 0x00, 0x00, 0x1c, 0x00, 0x00, 0x00, 
  0x8c, 0x00, 0x00, 0x00, 0xe4, 0x00, 0x00, 0x00, 0xe4, 0x10, 0x00, 0x00, 
  0xf4, 0x10, 0x00, 0x00, 0xcc, 0x1a, 0x00, 0x00, 0x03, 0x00, 0x00, 0x00, 
  0x01, 0x00, 0x00, 0x00, 0x04, 0x00, 0x00, 0x00, 0x02, 0xee, 0xff, 0xff, 
  0x0c, 0x00, 0x00, 0x00, 0x1c, 0x00, 0x00, 0x00, 0x3c, 0x00, 0x00, 0x00, 
  0x0f, 0x00, 0x00, 0x00, 0x73, 0x65, 0x72, 0x76, 0x69, 0x6e, 0x67, 0x5f, 
  0x64, 0x65, 0x66, 0x61, 0x75, 0x6c, 0x74, 0x00, 0x01, 0x00, 0x00, 0x00, 
  0x04, 0x00, 0x00, 0x00, 0x90, 0xff, 0xff, 0xff, 0x10, 0x00, 0x00, 0x00, 
  0x04, 0x00, 0x00, 0x00, 0x08, 0x00, 0x00, 0x00, 0x6f, 0x75, 0x74, 0x70, 
  0x75, 0x74, 0x5f, 0x30, 0x00, 0x00, 0x00, 0x00, 0x01, 0x00, 0x00, 0x00, 
  0x04, 0x00, 0x00, 0x00, 0x0a, 0xee, 0xff, 0xff, 0x04, 0x00, 0x00, 0x00, 
  0x0c, 0x00, 0x00, 0x00, 0x6b, 0x65, 0x72, 0x61, 0x73, 0x5f, 0x74, 0x65, 
  0x6e, 0x73, 0x6f, 0x72, 0x00, 0x00, 0x00, 0x00, 0x02, 0x00, 0x00, 0x00, 
  0x34, 0x00, 0x00, 0x00, 0x04, 0x00, 0x00, 0x00, 0xdc, 0xff, 0xff, 0xff, 
  0x13, 0x00, 0x00, 0x00, 0x04, 0x00, 0x00, 0x00, 0x13, 0x00, 0x00, 0x00, 
  0x43, 0x4f, 0x4e, 0x56, 0x45, 0x52, 0x53, 0x49, 0x4f, 0x4e, 0x5f, 0x4d, 
  0x45, 0x54, 0x41, 0x44, 0x41, 0x54, 0x41, 0x00, 0x08, 0x00, 0x0c, 0x00, 
  0x08, 0x00, 0x04, 0x00, 0x08, 0x00, 0x00, 0x00, 0x12, 0x00, 0x00, 0x00, 
  0x04, 0x00, 0x00, 0x00, 0x13, 0x00, 0x00, 0x00, 0x6d, 0x69, 0x6e, 0x5f, 
  0x72, 0x75, 0x6e, 0x74, 0x69, 0x6d, 0x65, 0x5f, 0x76, 0x65, 0x72, 0x73, 
  0x69, 0x6f, 0x6e, 0x00, 0x14, 0x00, 0x00, 0x00, 0xfc, 0x0f, 0x00, 0x00, 
  0xf4, 0x0f, 0x00, 0x00, 0xe0, 0x0f, 0x00, 0x00, 0xcc, 0x0f, 0x00, 0x00, 
  0xb8, 0x0f, 0x00, 0x00, 0x68, 0x0f, 0x00, 0x00, 0xd8, 0x0e, 0x00, 0x00, 
  0xbc, 0x0e, 0x00, 0x00, 0xec, 0x0d, 0x00, 0x00, 0xdc, 0x05, 0x00, 0x00, 
  0xcc, 0x00, 0x00, 0x00, 0xc4, 0x00, 0x00, 0x00, 0xbc, 0x00, 0x00, 0x00, 
  0xb4, 0x00, 0x00, 0x00, 0xac, 0x00, 0x00, 0x00, 0xa4, 0x00, 0x00, 0x00, 
  0x9c, 0x00, 0x00, 0x00, 0x94, 0x00, 0x00, 0x00, 0x74, 0x00, 0x00, 0x00, 
  0x04, 0x00, 0x00, 0x00, 0xd6, 0xee, 0xff, 0xff, 0x04, 0x00, 0x00, 0x00, 
  0x60, 0x00, 0x00, 0x00, 0x0c, 0x00, 0x00, 0x00, 0x08, 0x00, 0x0e, 0x00, 
  0x08, 0x00, 0x04, 0x00, 0x08, 0x00, 0x00, 0x00, 0x10, 0x00, 0x00, 0x00, 
  0x28, 0x00, 0x00, 0x00, 0x00, 0x00, 0x06, 0x00, 0x08, 0x00, 0x04, 0x00, 
  0x06, 0x00, 0x00, 0x00, 0x04, 0x00, 0x00, 0x00, 0x01, 0x00, 0x00, 0x00, 
  0xea, 0x03, 0x00, 0x00, 0x0c, 0x00, 0x18, 0x00, 0x14, 0x00, 0x10, 0x00, 
  0x0c, 0x00, 0x04, 0x00, 0x0c, 0x00, 0x00, 0x00, 0x71, 0x4d, 0x32, 0xc8, 
  0x89, 0xcd, 0x24, 0x4b, 0x02, 0x00, 0x00, 0x00, 0x02, 0x00, 0x00, 0x00, 
  0x04, 0x00, 0x00, 0x00, 0x06, 0x00, 0x00, 0x00, 0x32, 0x2e, 0x32, 0x30, 
  0x2e, 0x30, 0x00, 0x00, 0x42, 0xef, 0xff, 0xff, 0x04, 0x00, 0x00, 0x00, 
  0x10, 0x00, 0x00, 0x00, 0x32, 0x2e, 0x31, 0x37, 0x2e, 0x30, 0x00, 0x00, 
  0x00, 0x00, 0x00, 0x00, 0x00, 0x00, 0x00, 0x00, 0x24, 0xe7, 0xff, 0xff, 
  0x28, 0xe7, 0xff, 0xff, 0x2c, 0xe7, 0xff, 0xff, 0x30, 0xe7, 0xff, 0xff, 
  0x34, 0xe7, 0xff, 0xff, 0x38, 0xe7, 0xff, 0xff, 0x3c, 0xe7, 0xff, 0xff, 
  0x7a, 0xef, 0xff, 0xff, 0x04, 0x00, 0x00, 0x00, 0x00, 0x05, 0x00, 0x00, 
  0x10, 0x11, 0x4f, 0x4e, 0xff, 0xce, 0x09, 0x16, 0x42, 0xbf, 0x87, 0x07, 
  0x29, 0x7f, 0x3e, 0xda, 0xf0, 0x22, 0x8f, 0x28, 0x03, 0xdb, 0x09, 0x02, 
  0x91, 0xc7, 0xca, 0xc5, 0x26, 0x37, 0x7d, 0xe4, 0x34, 0xe5, 0x12, 0x34, 
  0x14, 0xc2, 0x0f, 0xb3, 0xdf, 0x46, 0xc3, 0xbd, 0xa1, 0x0e, 0x3f, 0xa3, 
  0x86, 0x4f, 0x46, 0x29, 0xc7, 0x38, 0x6e, 0x68, 0x48, 0x92, 0x77, 0x4f, 
  0xa2, 0xc0, 0xba, 0x06, 0x53, 0xab, 0xb5, 0xe3, 0x59, 0x18, 0x51, 0xbd, 
  0x4b, 0x68, 0x23, 0x6a, 0x2b, 0xa8, 0x81, 0xb9, 0xbb, 0x50, 0x4c, 0xda, 
  0x2e, 0xe3, 0xa3, 0x19, 0x78, 0xf6, 0x7f, 0x4f, 0xa4, 0x74, 0x68, 0x5f, 
  0xab, 0xcd, 0x92, 0xd7, 0x8d, 0x9c, 0xd8, 0x8c, 0x1f, 0x40, 0x4e, 0x20, 
  0x66, 0xcc, 0x49, 0xb6, 0xf6, 0xbf, 0xa5, 0xe7, 0x6e, 0x32, 0xb7, 0x47, 
  0x21, 0x01, 0x39, 0x35, 0xe4, 0xd6, 0xff, 0x3c, 0x2c, 0x29, 0x89, 0xf0, 
  0x46, 0xd7, 0x1b, 0xbb, 0x41, 0xc5, 0x03, 0x07, 0x25, 0x4e, 0x8a, 0xf7, 
  0x53, 0x17, 0x00, 0x32, 0xbd, 0x46, 0xd1, 0x10, 0xb3, 0x4c, 0xe9, 0xf8, 
  0x5b, 0x81, 0x49, 0xb9, 0x56, 0xe7, 0xd2, 0x1e, 0xc8, 0xcf, 0xdd, 0x0e, 
  0xdf, 0x05, 0x22, 0x12, 0xd4, 0x45, 0x56, 0xba, 0x47, 0x25, 0xe2, 0x37, 
  0xc4, 0xe7, 0x26, 0xbb, 0x3d, 0xfd, 0xa9, 0x8e, 0x5e, 0xb7, 0x05, 0x12, 
  0x04, 0x7f, 0x68, 0x71, 0xab, 0xc1, 0x06, 0x06, 0xa5, 0x51, 0x55, 0x59, 
  0x7f, 0x2c, 0xe6, 0x04, 0x7a, 0x85, 0xc5, 0xd5, 0xbd, 0x1f, 0x4f, 0xdf, 
  0x33, 0xff, 0x92, 0x4f, 0x4c, 0x2e, 0x47, 0xbb, 0xdd, 0x97, 0xb5, 0x95, 
  0x1a, 0xc7, 0x0b, 0x57, 0xe2, 0x73, 0x12, 0x2e, 0xe5, 0xef, 0x06, 0xd6, 
  0x09, 0x7b, 0xa3, 0x1e, 0x19, 0xbb, 0x03, 0x39, 0x76, 0xde, 0xb4, 0xfd, 
  0x7c, 0x9a, 0x07, 0x8a, 0xd7, 0x4a, 0xa4, 0xbe, 0xa8, 0x9e, 0x47, 0xd9, 
  0x0a, 0x27, 0x7f, 0x49, 0x62, 0x7a, 0xc0, 0x0f, 0xca, 0xac, 0x47, 0x0e, 
  0x01, 0x21, 0xb1, 0x26, 0x0b, 0xb3, 0x3f, 0x63, 0xe6, 0x5d, 0xae, 0x3f, 
  0xbd, 0xdb, 0xf4, 0x08, 0xb3, 0x86, 0x04, 0x81, 0x25, 0xd7, 0xf8, 0x30, 
  0x60, 0x0e, 0xbf, 0x8c, 0xdb, 0x62, 0x93, 0xe0, 0xfc, 0x23, 0x3d, 0x6d, 
  0x72, 0xfa, 0x77, 0x2d, 0xeb, 0x23, 0x6d, 0xa0, 0xc1, 0xdf, 0x14, 0x0c, 
  0xb8, 0xc0, 0xec, 0x22, 0xef, 0x47, 0xe0, 0xfe, 0x1b, 0xf1, 0x81, 0xc0, 
  0x0d, 0xfc, 0x44, 0x43, 0x17, 0x6b, 0xf2, 0xde, 0x4d, 0xf5, 0x24, 0xf2, 
  0x3b, 0xd2, 0xfb, 0xb1, 0x25, 0x34, 0xe0, 0x4b, 0x2d, 0xbe, 0x4d, 0x06, 
  0x06, 0xab, 0x95, 0x9b, 0xcf, 0x1a, 0xe1, 0x8e, 0x95, 0x5d, 0x39, 0x60, 
  0xc7, 0xa2, 0x0c, 0xa6, 0x67, 0x47, 0xb7, 0x5e, 0xf1, 0x81, 0x30, 0x27, 
  0x30, 0x3d, 0x3e, 0xc0, 0x2c, 0xb8, 0xf7, 0x35, 0xbc, 0xa2, 0xd8, 0x22, 
  0x37, 0x61, 0xf5, 0x64, 0xe3, 0xef, 0x62, 0x0b, 0xeb, 0x3e, 0x34, 0xde, 
  0x3c, 0x34, 0x49, 0xe0, 0x90, 0x62, 0xd9, 0xb2, 0xd1, 0x0c, 0x95, 0x11, 
  0xf8, 0xd0, 0xe9, 0x67, 0x0f, 0x01, 0xb2, 0xdb, 0x60, 0x81, 0x37, 0xd3, 
  0xff, 0x00, 0x5e, 0xfd, 0x42, 0xd9, 0xe8, 0x65, 0x47, 0x7f, 0x61, 0x2e, 
  0xec, 0x77, 0x19, 0x9c, 0xa4, 0xe6, 0x7b, 0x50, 0xb0, 0xb8, 0x37, 0xd6, 
  0xb2, 0xbc, 0x5a, 0xca, 0xa1, 0x9f, 0x4e, 0xd7, 0xc4, 0x24, 0x10, 0x39, 
  0x50, 0xcb, 0xb8, 0x92, 0xec, 0x59, 0xc4, 0x69, 0xbb, 0xc4, 0x58, 0x37, 
  0x07, 0x7f, 0xa2, 0xdd, 0x7a, 0x19, 0x2b, 0xb1, 0x17, 0xae, 0xbd, 0xcc, 
  0x5d, 0xed, 0x51, 0x47, 0x0e, 0x74, 0x0b, 0xcc, 0xa4, 0xa1, 0xca, 0x3f, 
  0xc7, 0xae, 0x3d, 0x4e, 0x00, 0x16, 0xc7, 0xef, 0xc9, 0x27, 0x27, 0x14, 
  0x2d, 0xcc, 0x31, 0xff, 0x7f, 0x11, 0xbb, 0x9b, 0x8d, 0xa7, 0xbb, 0x4d, 
  0xc4, 0x13, 0xa6, 0x53, 0x13, 0x54, 0x30, 0x60, 0x52, 0x3b, 0x8e, 0x00, 
  0x6d, 0xdd, 0x16, 0xa8, 0x2d, 0xfa, 0x76, 0x33, 0x4c, 0x01, 0x42, 0xf1, 
  0xd8, 0x88, 0xe9, 0xeb, 0x42, 0x48, 0xb7, 0xac, 0xf4, 0x54, 0x71, 0xc9, 
  0x8b, 0x0b, 0xb6, 0x81, 0xef, 0x6a, 0x35, 0xfc, 0x5f, 0xaf, 0x3e, 0x25, 
  0x2b, 0x11, 0x63, 0x12, 0x3a, 0x84, 0x23, 0x44, 0xa1, 0x2a, 0x0d, 0xf0, 
  0x81, 0x1b, 0xbf, 0x1d, 0xa4, 0xdf, 0xdb, 0x74, 0x53, 0xd0, 0x66, 0xc2, 
  0x31, 0x8a, 0x15, 0xe0, 0x61, 0x2b, 0x72, 0xae, 0x4b, 0x8f, 0xf8, 0x58, 
  0x88, 0x1e, 0xac, 0xf6, 0xe4, 0x7f, 0x22, 0x02, 0x5a, 0x9b, 0x92, 0xf3, 
  0x14, 0x4a, 0x25, 0x40, 0x4b, 0x55, 0xcb, 0xea, 0x46, 0x29, 0xdb, 0x78, 
  0xc1, 0xbe, 0xdc, 0x90, 0xe1, 0xa8, 0x47, 0xc0, 0x29, 0x4b, 0xa3, 0xb4, 
  0x11, 0x0d, 0xec, 0x2a, 0xc6, 0x2c, 0xff, 0xc3, 0x11, 0x71, 0x07, 0x64, 
  0xa8, 0xc7, 0xff, 0xa2, 0x3e, 0xf8, 0x72, 0x3c, 0xb6, 0xf2, 0x4a, 0xe0, 
  0xf8, 0xf6, 0x7f, 0x6b, 0xda, 0xb6, 0xee, 0x17, 0x45, 0xca, 0x5b, 0x57, 
  0x68, 0x42, 0x8d, 0x48, 0x42, 0x00, 0xa1, 0xb6, 0x28, 0xee, 0x0b, 0x0d, 
  0x47, 0x9e, 0x0c, 0xdc, 0x83, 0xa2, 0x97, 0x6d, 0x40, 0x7f, 0xa2, 0xce, 
  0xc4, 0xf2, 0x2b, 0x91, 0x6c, 0x1a, 0xe8, 0x68, 0x3b, 0x35, 0x14, 0x91, 
  0x1e, 0x52, 0x1b, 0x59, 0xf3, 0x41, 0xb0, 0x8b, 0x70, 0x9c, 0x29, 0xf0, 
  0xb5, 0x5f, 0x1e, 0x22, 0x13, 0xbf, 0x17, 0x89, 0xe6, 0xce, 0xda, 0x00, 
  0xb5, 0x15, 0xd1, 0xc3, 0xe9, 0x55, 0xf9, 0x45, 0x40, 0xb0, 0x7f, 0xf3, 
  0xa7, 0x4f, 0x2d, 0x1e, 0x74, 0xae, 0x50, 0xcc, 0xd5, 0x15, 0x7f, 0xaa, 
  0xfd, 0xaa, 0x08, 0xb6, 0xb7, 0xcf, 0xd9, 0xb9, 0x11, 0xa8, 0xe8, 0x23, 
  0x36, 0x15, 0xaf, 0x7a, 0xc1, 0x23, 0xde, 0xfd, 0x57, 0x34, 0xe4, 0x40, 
  0x10, 0x45, 0xc8, 0xef, 0xaf, 0x6b, 0x78, 0x57, 0x20, 0xbe, 0x4a, 0xd1, 
  0xcf, 0x7a, 0x37, 0x57, 0xd5, 0x1c, 0x16, 0xda, 0xfd, 0xe4, 0xa0, 0x59, 
  0x7f, 0xc9, 0xc4, 0xad, 0x13, 0xc9, 0xc2, 0xb4, 0xad, 0xd5, 0x1a, 0xb5, 
  0xd7, 0x2c, 0x3f, 0x1e, 0x6f, 0x5c, 0xaf, 0x22, 0xe2, 0xd8, 0x6c, 0x58, 
  0xb0, 0x66, 0x48, 0x7b, 0xe3, 0xe7, 0xc2, 0x4f, 0x55, 0xee, 0xd6, 0x09, 
  0xfe, 0x23, 0x3c, 0xd1, 0xfb, 0x51, 0x8b, 0x1a, 0x4f, 0xc2, 0x09, 0xf7, 
  0x85, 0x0c, 0xe3, 0x81, 0x40, 0xc3, 0x70, 0xa3, 0x62, 0x3a, 0x1e, 0xd6, 
  0x2d, 0x86, 0xf2, 0x55, 0x0d, 0x5d, 0x5d, 0xff, 0x43, 0xb6, 0xb7, 0x51, 
  0x21, 0xb6, 0x55, 0x8e, 0xf8, 0x5c, 0xe0, 0xd5, 0xae, 0x52, 0x81, 0x5f, 
  0x52, 0x1b, 0x27, 0x92, 0x2d, 0xc9, 0x0f, 0x88, 0xd1, 0xc3, 0x30, 0x60, 
  0x16, 0x14, 0x93, 0xf4, 0x86, 0xb5, 0xc8, 0x58, 0xc5, 0x69, 0x93, 0x54, 
  0x66, 0x4e, 0xc8, 0xab, 0x4e, 0x02, 0xc5, 0x02, 0x86, 0xfe, 0x9f, 0x04, 
  0x3b, 0x92, 0xa9, 0x8c, 0x4e, 0xb6, 0xa3, 0xc7, 0x5e, 0xc5, 0xf1, 0xdf, 
  0x2d, 0x72, 0x40, 0x42, 0x4d, 0xc3, 0xa8, 0x7f, 0xe0, 0x84, 0x4c, 0x42, 
  0xf0, 0x99, 0xcd, 0xa5, 0xb4, 0xd0, 0x00, 0x63, 0x63, 0x25, 0xbe, 0x60, 
  0x36, 0xe4, 0xe7, 0xb8, 0xa1, 0x2b, 0x59, 0xe6, 0xb6, 0x72, 0x68, 0x01, 
  0x99, 0x88, 0x16, 0x81, 0x59, 0x9f, 0x37, 0xc8, 0xa8, 0x37, 0x06, 0x6b, 
  0x8c, 0x1a, 0x1a, 0x47, 0xf0, 0x0a, 0x23, 0xc5, 0x4c, 0x3e, 0xb7, 0xae, 
  0xd6, 0xc2, 0x81, 0xf5, 0xc2, 0x22, 0x18, 0x57, 0x06, 0x59, 0x6e, 0x75, 
  0xb5, 0xea, 0x72, 0x19, 0x69, 0x18, 0x4c, 0x0d, 0x92, 0xd2, 0xc6, 0x53, 
  0xf3, 0xa6, 0x41, 0x9d, 0x78, 0xf1, 0xf0, 0xae, 0xf0, 0xc3, 0x20, 0x0b, 
  0x4a, 0xd6, 0xe9, 0xfe, 0xea, 0x33, 0xa6, 0x44, 0x4e, 0xc2, 0x09, 0x0f, 
  0x52, 0x40, 0x96, 0x81, 0x29, 0x5e, 0xeb, 0xe8, 0xac, 0x0e, 0x2f, 0x54, 
  0x1c, 0xcb, 0xc9, 0x02, 0xe6, 0xab, 0x1d, 0x2b, 0x2d, 0x48, 0x42, 0xb2, 
  0xd1, 0xde, 0xed, 0xac, 0xfd, 0x9c, 0xa2, 0x52, 0x57, 0x2c, 0xd4, 0x06, 
  0xa5, 0xd5, 0x2f, 0x00, 0xe0, 0x44, 0xd4, 0x6c, 0x4a, 0x2d, 0xeb, 0x3b, 
  0x33, 0x40, 0x72, 0xe7, 0xc8, 0xe1, 0x7f, 0x92, 0x28, 0xa7, 0x23, 0x1a, 
  0xd7, 0x56, 0x1a, 0xc5, 0x0a, 0x5d, 0xa3, 0x07, 0x87, 0xed, 0x34, 0x14, 
  0x48, 0xde, 0xf6, 0x14, 0x81, 0xcc, 0x23, 0xa6, 0x60, 0xac, 0x6d, 0x0b, 
  0x4e, 0x0e, 0x3e, 0x5f, 0xea, 0xc6, 0xe0, 0xae, 0x3b, 0x33, 0xaa, 0x2e, 
  0x6a, 0x37, 0x87, 0x56, 0xdf, 0x1b, 0x5c, 0x84, 0x0d, 0xe6, 0x41, 0xfc, 
  0x0a, 0x81, 0x8f, 0xe6, 0xd3, 0xff, 0xd0, 0x0e, 0x48, 0x24, 0xcf, 0xcc, 
  0x11, 0x25, 0x46, 0x45, 0x0b, 0xfc, 0x0f, 0x30, 0x0f, 0x44, 0x87, 0xe6, 
  0xb4, 0x01, 0x28, 0x0f, 0x3f, 0x2f, 0x49, 0x19, 0x53, 0xf8, 0x2b, 0xb8, 
  0x0c, 0xa1, 0x5f, 0x0f, 0xba, 0xfe, 0xed, 0xb6, 0xf8, 0x2f, 0x29, 0xc2, 
  0xa2, 0x9b, 0xe2, 0x73, 0x10, 0x53, 0x7e, 0xc7, 0x30, 0x10, 0x7f, 0x43, 
  0x97, 0xe8, 0x24, 0x3b, 0xa8, 0x0c, 0x0c, 0xd6, 0x4d, 0xf5, 0xb2, 0xbd, 
  0x98, 0x41, 0xe4, 0x0d, 0x03, 0x4b, 0x00, 0x5f, 0xa6, 0x9b, 0x35, 0x5e, 
  0x18, 0x97, 0x32, 0xcc, 0x16, 0x29, 0xfd, 0xd9, 0xce, 0x83, 0xda, 0x3e, 
  0x2e, 0x45, 0x88, 0x22, 0x13, 0x34, 0x3e, 0x81, 0xd8, 0xd4, 0x30, 0x1a, 
  0x10, 0xd2, 0x10, 0x85, 0x09, 0x61, 0x98, 0x4b, 0x86, 0xf4, 0xff, 0xff, 
  0x04, 0x00, 0x00, 0x00, 0x00, 0x08, 0x00, 0x00, 0xdb, 0xff, 0x89, 0x3d, 
  0xb9, 0x90, 0x48, 0x3e, 0x1b, 0xff, 0xb5, 0xbd, 0x52, 0x9b, 0xb5, 0xbe, 
  0xd9, 0xb9, 0xd4, 0xbc, 0x52, 0x6e, 0x68, 0xbc, 0x0a, 0x44, 0xc7, 0x3c, 
  0x4d, 0x0f, 0x95, 0xbe, 0xdf, 0xe5, 0x9c, 0xbe, 0xed, 0x1b, 0x13, 0xbe, 
  0x78, 0xe6, 0xb0, 0xbd, 0x7e, 0x11, 0x59, 0x3e, 0x18, 0x3c, 0x76, 0xbe, 
  0x85, 0xa9, 0x6c, 0xbc, 0x23, 0xc0, 0x5e, 0x3d, 0x7c, 0xcb, 0x3b, 0xbe, 
  0x8f, 0x62, 0x65, 0xbd, 0xcc, 0x7a, 0x9f, 0xbe, 0x37, 0xad, 0x22, 0x3b, 
  0xdb, 0x1c, 0x13, 0xbe, 0x70, 0x96, 0x26, 0x3e, 0xea, 0x2b, 0x23, 0x3e, 
  0x68, 0xbb, 0x5c, 0xbe, 0xa9, 0x3b, 0xd6, 0xbb, 0x97, 0x9e, 0x3a, 0x3d, 
  0x31, 0xc7, 0x69, 0xbe, 0x03, 0xa2, 0x8b, 0xbe, 0xf6, 0x12, 0x50, 0x3e, 
  0x69, 0xf9, 0x98, 0xbd, 0x07, 0xb0, 0x11, 0xbe, 0x31, 0x96, 0xaf, 0xbd, 
  0xc4, 0xae, 0x07, 0x3e, 0x2e, 0x12, 0x8a, 0x3d, 0xb9, 0x66, 0x86, 0x3e, 
  0x66, 0xf0, 0x8d, 0x3e, 0x02, 0x89, 0x65, 0x3e, 0xbf, 0xbb, 0x3d, 0x3e, 
  0x46, 0x81, 0x88, 0x3d, 0xc9, 0x75, 0xcc, 0x3d, 0xdc, 0x4c, 0x65, 0x3e, 
  0x59, 0xfb, 0x6e, 0x3e, 0x12, 0x29, 0x86, 0xbe, 0xf2, 0xb5, 0x26, 0x3e, 
  0x14, 0x50, 0xc6, 0x3d, 0x41, 0xa1, 0x8b, 0xbd, 0x35, 0x34, 0xaa, 0x3d, 
  0xb6, 0x3e, 0xd0, 0x3d, 0x98, 0xea, 0xa8, 0xbd, 0x39, 0xf3, 0x81, 0x3d, 
  0x92, 0xd7, 0x13, 0x3e, 0xc3, 0x12, 0xc7, 0xbe, 0x3a, 0xc0, 0x7c, 0x3d, 
  0x06, 0xd7, 0xe1, 0xbc, 0x56, 0xce, 0x64, 0x3e, 0x24, 0x91, 0x73, 0xbd, 
  0xf8, 0x4f, 0x15, 0xbe, 0xa7, 0xf7, 0xf8, 0xbe, 0xd2, 0x7e, 0x26, 0x3e, 
  0xd2, 0xa9, 0x06, 0x3d, 0xd6, 0x1d, 0xc3, 0xbd, 0x62, 0x63, 0x11, 0xbe, 
  0xf0, 0xb8, 0xe1, 0xbd, 0xf3, 0x42, 0xc4, 0xbd, 0x29, 0x0b, 0x0c, 0x3b, 
  0x76, 0x01, 0xb2, 0xbe, 0x20, 0xd2, 0x2c, 0x3d, 0x9b, 0xf5, 0x7e, 0xbe, 
  0x6f, 0x0c, 0xe1, 0xbd, 0x1b, 0x28, 0x65, 0xbd, 0x13, 0x73, 0x23, 0x3e, 
  0xf5, 0xc5, 0x88, 0xbd, 0xf2, 0x29, 0xa1, 0x3d, 0xca, 0xf4, 0x60, 0x3e, 
  0xef, 0xf8, 0xcd, 0xbd, 0xd7, 0x4f, 0x1b, 0x3b, 0x85, 0x8c, 0xe7, 0xbd, 
  0x1d, 0xf3, 0x4a, 0xbe, 0xf6, 0x7c, 0xd8, 0xbd, 0x13, 0xf2, 0x60, 0xbe, 
  0xd3, 0x85, 0x3d, 0xbe, 0xcb, 0xb7, 0x2d, 0xbc, 0xf9, 0x3c, 0xc5, 0x3d, 
  0xab, 0xff, 0xed, 0xbc, 0x54, 0x75, 0xb8, 0xbd, 0xe3, 0x87, 0x7f, 0xbc, 
  0x73, 0xec, 0xa2, 0x3d, 0xdd, 0x48, 0x80, 0xbe, 0xfe, 0x4d, 0xd2, 0xbd, 
  0x8f, 0x7a, 0x96, 0xbe, 0x94, 0x8f, 0x87, 0xbe, 0x12, 0x6e, 0xdf, 0xbd, 
  0x4b, 0x74, 0xe9, 0xbd, 0x2c, 0x79, 0xfc, 0x3b, 0x8b, 0xfa, 0x3e, 0xbe, 
  0xfe, 0xee, 0xdb, 0x3c, 0xaf, 0x13, 0x79, 0x3e, 0xcd, 0x9c, 0x9e, 0xbd, 
  0xe0, 0x5b, 0x13, 0x3e, 0x2d, 0xae, 0x5a, 0x3e, 0x11, 0x3c, 0xc1, 0xbc, 
  0x3f, 0x61, 0x47, 0x3d, 0xa9, 0x12, 0x29, 0x3d, 0xbc, 0xac, 0xb7, 0xbc, 
  0x84, 0xf8, 0x02, 0x3d, 0xa6, 0x00, 0xc6, 0x3d, 0x33, 0xf8, 0x4c, 0xbe, 
  0x7a, 0xe0, 0xff, 0x3b, 0xa3, 0x1b, 0x49, 0x3b, 0x20, 0x42, 0x7c, 0x3e, 
  0xef, 0x3b, 0xce, 0x3d, 0x71, 0xe8, 0x80, 0x3e, 0x66, 0x8e, 0xdb, 0x3d, 
  0x03, 0x0f, 0xb3, 0xbd, 0x75, 0x08, 0xa3, 0x3d, 0xfb, 0xc0, 0xf7, 0xbe, 
  0xce, 0x5f, 0x2b, 0x3d, 0xb5, 0x7e, 0x1e, 0x3e, 0xb6, 0x13, 0xbc, 0x3d, 
  0x17, 0xfb, 0x7f, 0xbe, 0x87, 0x42, 0x16, 0xbf, 0xc7, 0xab, 0x4e, 0x3d, 
  0xeb, 0x8c, 0xb7, 0xba, 0x58, 0x26, 0x10, 0x3e, 0xe1, 0x5e, 0x0b, 0x3e, 
  0x1f, 0x1f, 0xe1, 0x3c, 0x62, 0x96, 0x60, 0xbd, 0xd6, 0xb9, 0xbb, 0xb8, 
  0x0e, 0x8d, 0xcd, 0xbe, 0x36, 0x87, 0x5c, 0x3d, 0xbe, 0xfe, 0x58, 0x3e, 
  0x1e, 0xfa, 0x29, 0x3e, 0x72, 0x67, 0xd2, 0x3d, 0x21, 0x7e, 0xbd, 0xbd, 
  0x71, 0x42, 0x66, 0x3d, 0xf3, 0xf5, 0x8a, 0x3d, 0xa1, 0x56, 0xc8, 0x3d, 
  0x39, 0x44, 0x6f, 0x3e, 0x92, 0x83, 0x76, 0xbe, 0x79, 0xf0, 0xd3, 0xbd, 
  0xb3, 0xb7, 0x81, 0x3e, 0xea, 0xe6, 0x53, 0x3e, 0xc7, 0x95, 0x89, 0x3e, 
  0xb7, 0x3b, 0x25, 0x3b, 0x2a, 0x29, 0xfb, 0xbd, 0x15, 0x05, 0x91, 0xbd, 
  0x4c, 0x08, 0x7c, 0x3e, 0x51, 0xcd, 0x88, 0xbe, 0x4a, 0x5d, 0x84, 0x3e, 
  0x90, 0xbd, 0x44, 0x3e, 0xa5, 0xb0, 0x6e, 0x3d, 0x3a, 0x3a, 0x30, 0xbe, 
  0x4a, 0x41, 0x5a, 0xbe, 0xff, 0xf6, 0xb5, 0xbe, 0x44, 0xae, 0x05, 0xbb, 
  0xfb, 0xd6, 0xdf, 0x3c, 0xab, 0x79, 0x5f, 0x3e, 0x71, 0xb3, 0xac, 0xbd, 
  0xea, 0x4a, 0x55, 0x3e, 0x57, 0xdf, 0x62, 0xbe, 0x0d, 0x5c, 0x18, 0xbc, 
  0xb6, 0xc6, 0x85, 0x3d, 0x03, 0x12, 0xf4, 0xbc, 0x36, 0x57, 0x05, 0x3e, 
  0xa1, 0x37, 0xb2, 0xbd, 0x02, 0x29, 0x2c, 0xbd, 0x7f, 0xbf, 0x25, 0x3d, 
  0x79, 0x45, 0x08, 0x3d, 0x38, 0x98, 0x15, 0x3e, 0x53, 0x73, 0x61, 0xbd, 
  0xa9, 0x29, 0xee, 0x3b, 0xed, 0x72, 0x5f, 0xbd, 0x5e, 0x82, 0x9b, 0xbd, 
  0x74, 0x93, 0x49, 0xbd, 0x15, 0x46, 0xeb, 0x3d, 0x42, 0x62, 0x84, 0xbd, 
  0x94, 0x9c, 0x0c, 0x3e, 0xac, 0xad, 0x7f, 0x3e, 0x5d, 0x24, 0x20, 0x3e, 
  0x1a, 0x3d, 0x09, 0xbf, 0xd3, 0x09, 0x26, 0xbd, 0x96, 0x69, 0x0f, 0x3e, 
  0x4b, 0x5d, 0xf7, 0xbc, 0x33, 0xce, 0xad, 0xbe, 0x3c, 0xc3, 0xb2, 0xbe, 
  0x6b, 0x7a, 0xaa, 0xbe, 0x5c, 0x56, 0x0f, 0x3e, 0xcf, 0x98, 0x91, 0xbd, 
  0x8f, 0xa0, 0x13, 0xbe, 0x56, 0x6d, 0x82, 0x3d, 0xeb, 0xd4, 0x0d, 0x3d, 
  0x29, 0xf6, 0xa0, 0xbe, 0x37, 0xa7, 0xba, 0xbe, 0xe4, 0x85, 0xff, 0xbd, 
  0x53, 0x2f, 0xb5, 0xbb, 0xbd, 0xf7, 0x1d, 0xbd, 0x08, 0x4a, 0x0f, 0x3e, 
  0xc0, 0x73, 0xd2, 0xbd, 0x6b, 0xc6, 0x14, 0xbe, 0x80, 0xe6, 0x07, 0x3d, 
  0xef, 0x53, 0x36, 0x3d, 0x9e, 0x9b, 0xfb, 0xbd, 0x32, 0x05, 0x34, 0xbe, 
  0xc4, 0x20, 0x4c, 0xbb, 0xcc, 0x4c, 0x2a, 0x3e, 0xa4, 0x8b, 0x18, 0xbe, 
  0x5c, 0xaa, 0x7c, 0xbe, 0x64, 0xf8, 0x31, 0xbb, 0xca, 0x36, 0x7a, 0xbe, 
  0xc0, 0xc9, 0x45, 0x3c, 0x2b, 0xd8, 0x97, 0xbc, 0x91, 0x1d, 0x5a, 0x3d, 
  0x69, 0x41, 0x9f, 0xbe, 0xf0, 0x1d, 0xa3, 0x3c, 0x87, 0x8f, 0x6c, 0xbd, 
  0xb1, 0xd2, 0x21, 0xbe, 0x41, 0x06, 0xb1, 0x3c, 0xaf, 0x55, 0xec, 0x3d, 
  0x1a, 0x69, 0xc4, 0x3d, 0x06, 0x47, 0x0d, 0x3e, 0xba, 0x94, 0x06, 0x3e, 
  0x2e, 0xc1, 0x07, 0xbe, 0x6d, 0x4d, 0x81, 0xbd, 0x13, 0xe0, 0xdd, 0xbb, 
  0x4f, 0xaa, 0x4d, 0xbe, 0xb6, 0xce, 0x2d, 0xbd, 0xde, 0x3b, 0x92, 0x3c, 
  0x20, 0x0d, 0x58, 0xbd, 0x93, 0x8d, 0xb2, 0xbd, 0x26, 0x15, 0xcf, 0xbd, 
  0x91, 0x2b, 0xfd, 0xbc, 0x68, 0x18, 0x23, 0xbd, 0xc6, 0x68, 0xf0, 0xbc, 
  0xf4, 0x2c, 0xed, 0xbd, 0x94, 0xff, 0xdf, 0xbc, 0x0e, 0x52, 0x92, 0xbb, 
  0x5c, 0x78, 0x44, 0xbd, 0xdb, 0xe4, 0xae, 0x3d, 0xf3, 0xa4, 0x9c, 0xbd, 
  0x19, 0x3e, 0x78, 0x3d, 0x5b, 0x38, 0xd3, 0xbc, 0x74, 0xd0, 0x81, 0x3d, 
  0x64, 0x7f, 0x5f, 0xbc, 0x17, 0x93, 0x6b, 0x3d, 0x8b, 0xe4, 0xb1, 0xbc, 
  0x52, 0x48, 0x57, 0xbe, 0xb4, 0x55, 0xac, 0xbe, 0x3e, 0x00, 0xcc, 0xbc, 
  0x72, 0x54, 0x8a, 0x3c, 0x0f, 0xc1, 0x0c, 0x3e, 0xb3, 0x41, 0x79, 0x3d, 
  0x90, 0xaf, 0x6b, 0x3e, 0x05, 0x75, 0xef, 0xbc, 0xf5, 0x2e, 0x72, 0xbe, 
  0x49, 0x6c, 0x97, 0xbe, 0xf4, 0x06, 0xbc, 0x3c, 0x8d, 0x24, 0xde, 0xbc, 
  0xb7, 0x6a, 0x24, 0x3e, 0x28, 0x49, 0xa1, 0x3e, 0x1f, 0x1d, 0x47, 0x3e, 
  0x2e, 0xf5, 0x02, 0x3e, 0xdb, 0x67, 0xac, 0x3e, 0x0f, 0x50, 0x6d, 0x3e, 
  0xb9, 0x96, 0xa0, 0x3e, 0x0b, 0xcf, 0x48, 0xbd, 0xfb, 0x65, 0xb3, 0x3d, 
  0x24, 0x38, 0x18, 0xbe, 0x3f, 0x48, 0x12, 0x3e, 0x5a, 0x32, 0x42, 0x3e, 
  0xbc, 0x95, 0x08, 0x3e, 0xeb, 0x97, 0x29, 0x3d, 0x5a, 0x83, 0x5b, 0x3e, 
  0x4d, 0x98, 0xf6, 0x3d, 0x80, 0xfb, 0x3a, 0xbe, 0xf5, 0xb6, 0x39, 0xbe, 
  0x78, 0x7e, 0xc9, 0xbe, 0x35, 0x78, 0xdf, 0x3d, 0xf5, 0xa1, 0x19, 0x3e, 
  0x71, 0x6b, 0x7f, 0xbd, 0x6a, 0x30, 0x4e, 0xbe, 0xb1, 0xa1, 0xe9, 0x3d, 
  0x43, 0xef, 0xd4, 0xbe, 0xfc, 0xf3, 0x8c, 0x3e, 0x63, 0x5a, 0x76, 0x3d, 
  0xae, 0x2d, 0x34, 0x3e, 0x74, 0xdc, 0x3f, 0x3d, 0x4e, 0x3c, 0x3b, 0x3c, 
  0xa8, 0x3b, 0x46, 0xbe, 0x3f, 0x73, 0x36, 0xbe, 0x0b, 0xe3, 0x2c, 0xbd, 
  0xd1, 0xab, 0x12, 0xbe, 0x79, 0xfa, 0x30, 0x3e, 0xfa, 0x5e, 0x02, 0x3e, 
  0x1b, 0xd2, 0x2f, 0x3e, 0xe3, 0xf6, 0x64, 0x3d, 0x59, 0x7c, 0x2f, 0x3e, 
  0x14, 0x96, 0xd2, 0x3c, 0x29, 0x3f, 0x41, 0x3e, 0x90, 0x81, 0xab, 0x3d, 
  0xe4, 0x2f, 0x66, 0x3e, 0x60, 0xa0, 0xd1, 0xbd, 0x3a, 0x24, 0xc5, 0x3d, 
  0xc3, 0xf3, 0x89, 0x3d, 0xb8, 0xb8, 0xd3, 0x3d, 0xb2, 0xa2, 0xca, 0x3d, 
  0xb0, 0x0a, 0xe6, 0x3e, 0x35, 0xf1, 0x34, 0xbd, 0xe3, 0xc1, 0xf3, 0xbe, 
  0xcc, 0xca, 0x58, 0x3e, 0x3d, 0x8a, 0x49, 0xbe, 0xdf, 0xeb, 0x49, 0x3d, 
  0x29, 0x15, 0x3f, 0x3e, 0xe7, 0x0c, 0x07, 0x3d, 0x5d, 0x01, 0x12, 0x3d, 
  0xfc, 0xd2, 0x51, 0x3d, 0xb9, 0x1e, 0x20, 0x3e, 0xbf, 0x05, 0x6d, 0x3d, 
  0xc5, 0x71, 0x40, 0x3e, 0x77, 0xcf, 0x6f, 0xbd, 0xab, 0xe7, 0xdc, 0xbc, 
  0xcf, 0x82, 0x58, 0xbe, 0xbc, 0xb7, 0x7b, 0x3d, 0xb1, 0xfb, 0x49, 0xbe, 
  0xd8, 0x81, 0x2a, 0xbe, 0x84, 0xfe, 0x72, 0x3e, 0xdf, 0xd6, 0x84, 0x3c, 
  0x15, 0xe7, 0x8a, 0xbd, 0x9e, 0xc6, 0x84, 0xbd, 0xd5, 0xfd, 0x8c, 0x3d, 
  0x6c, 0x69, 0x14, 0xbd, 0xc6, 0x2a, 0xb0, 0xbe, 0x86, 0x0d, 0x8c, 0x3e, 
  0x39, 0x22, 0x92, 0x3e, 0x4a, 0x2c, 0x8c, 0xbd, 0x17, 0x3c, 0x1b, 0x3e, 
  0x5f, 0x1b, 0xee, 0xbc, 0x06, 0x08, 0x7b, 0x3e, 0x44, 0x58, 0xa9, 0x3e, 
  0x1a, 0xc5, 0x13, 0xbd, 0x2c, 0x11, 0x86, 0xbe, 0xcd, 0x95, 0x4c, 0x3e, 
  0xdd, 0xc9, 0xb6, 0x3e, 0xb1, 0x76, 0x1a, 0x3e, 0x16, 0xbb, 0x9e, 0x3e, 
  0xea, 0x42, 0x88, 0xbe, 0xe0, 0x84, 0x4b, 0xbe, 0x6d, 0x6f, 0x1b, 0xbe, 
  0x25, 0x84, 0x97, 0x3e, 0x95, 0x54, 0x79, 0x3d, 0x81, 0xbe, 0xac, 0x3e, 
  0x8f, 0x48, 0x8f, 0x3e, 0xb7, 0x94, 0xb9, 0xbe, 0x18, 0x2d, 0xe6, 0x3d, 
  0x88, 0xea, 0x7e, 0x3e, 0xc5, 0xb8, 0x77, 0xbd, 0xe2, 0xb6, 0xca, 0x3d, 
  0xd0, 0x47, 0x8b, 0xbd, 0x32, 0x9d, 0x32, 0xbe, 0xf9, 0xd6, 0x86, 0xbd, 
  0xf1, 0xa9, 0x5a, 0x3b, 0x88, 0xdd, 0x38, 0xbe, 0xfa, 0x4d, 0xd0, 0xbc, 
  0x6f, 0x4f, 0x41, 0xbb, 0x1b, 0x22, 0xc8, 0x3c, 0xb5, 0xae, 0x3d, 0xbe, 
  0xe6, 0xa3, 0x09, 0xbe, 0x08, 0x35, 0x3c, 0x3e, 0x2d, 0xd9, 0x4d, 0xbe, 
  0xe8, 0xb1, 0xd9, 0xbd, 0x04, 0x5b, 0x16, 0x3d, 0x14, 0x3b, 0x84, 0xbe, 
  0xd9, 0x49, 0x24, 0xbe, 0xc3, 0x2b, 0x57, 0xbe, 0x80, 0x2d, 0x28, 0xbe, 
  0xbc, 0xa7, 0x46, 0xbe, 0x3a, 0xba, 0x6a, 0xbe, 0xd9, 0x6e, 0x84, 0x3d, 
  0x6a, 0x62, 0x56, 0x3e, 0x95, 0x6a, 0x80, 0xbe, 0x41, 0x62, 0xa4, 0xbe, 
  0x8f, 0x8a, 0x91, 0xbd, 0x2e, 0x47, 0x37, 0x3e, 0x20, 0x00, 0x91, 0xbd, 
  0xd9, 0xd1, 0x84, 0xbd, 0x87, 0x81, 0xf4, 0xbc, 0x9c, 0x05, 0x09, 0xbe, 
  0xf6, 0x03, 0xe3, 0xbd, 0xd3, 0xfc, 0x20, 0xbc, 0x93, 0x7d, 0x17, 0xbd, 
  0xcc, 0xcf, 0xb7, 0xbb, 0x94, 0x70, 0xd7, 0xbc, 0x88, 0xa6, 0x34, 0xbc, 
  0x14, 0xb6, 0x34, 0xba, 0xcd, 0x94, 0x03, 0xbe, 0x66, 0x3d, 0x96, 0x37, 
  0x99, 0x7d, 0xb2, 0xbc, 0xe5, 0x40, 0xb5, 0xbb, 0x1b, 0xff, 0xb2, 0xbd, 
  0xf6, 0xbe, 0xfb, 0xbc, 0x55, 0xcd, 0xb7, 0xbd, 0xd0, 0x98, 0x98, 0x3b, 
  0xa3, 0x90, 0x92, 0x3b, 0xc5, 0xd4, 0x4d, 0x3d, 0x4c, 0x7b, 0x30, 0x37, 
  0x7f, 0x00, 0xdb, 0xbc, 0xa1, 0xbd, 0xd6, 0xbd, 0x46, 0x46, 0x08, 0x3e, 
  0x34, 0x45, 0x98, 0xbd, 0x26, 0xc6, 0xcf, 0xb6, 0x95, 0xd6, 0x18, 0xba, 
  0xda, 0x5d, 0x74, 0xbc, 0xec, 0xc0, 0xf6, 0xbd, 0xd0, 0x3e, 0xf6, 0xbc, 
  0x68, 0xa4, 0x10, 0x3e, 0x33, 0x2f, 0xa7, 0xbd, 0xbe, 0x25, 0xa6, 0xb4, 
  0xbf, 0xfa, 0xb3, 0xbc, 0x0f, 0x4e, 0xe4, 0x3d, 0x02, 0x8b, 0x0e, 0xbe, 
  0xe2, 0xfa, 0x05, 0x3d, 0x56, 0x8c, 0x18, 0xbe, 0x19, 0x8a, 0x81, 0x3c, 
  0x72, 0xdc, 0x7d, 0xbe, 0xdf, 0x73, 0x92, 0xbd, 0x9f, 0xfc, 0x2a, 0x3e, 
  0x77, 0xc5, 0xf8, 0x3d, 0x2f, 0xa6, 0x2c, 0xbb, 0xa0, 0x50, 0x31, 0xbe, 
  0xd5, 0x4d, 0x73, 0xbe, 0x6a, 0xfc, 0xa0, 0x3d, 0x92, 0xbd, 0x00, 0xbd, 
  0x02, 0x81, 0x7e, 0xbe, 0x51, 0x04, 0x23, 0xbe, 0x9a, 0xf2, 0x25, 0xbe, 
  0xce, 0x16, 0x78, 0xbe, 0x4d, 0xbc, 0x2f, 0xbe, 0xd1, 0x13, 0x81, 0xbe, 
  0x9b, 0xbf, 0xe3, 0xbb, 0x8f, 0x73, 0xc8, 0x3d, 0xea, 0xa8, 0x74, 0xbe, 
  0xed, 0x24, 0x96, 0xbb, 0xca, 0x74, 0x65, 0xbe, 0x74, 0x8f, 0xf5, 0xbd, 
  0xa2, 0xce, 0x84, 0xbe, 0x6b, 0x5c, 0x50, 0x3e, 0xad, 0x04, 0x2f, 0xbe, 
  0xff, 0xdf, 0xd5, 0x3d, 0xef, 0x4f, 0xab, 0x3d, 0xf5, 0x17, 0x99, 0x3d, 
  0x12, 0x82, 0x1e, 0x3d, 0x19, 0x55, 0x5b, 0x3e, 0x06, 0xfa, 0xc4, 0x3d, 
  0xfa, 0x79, 0xb9, 0xbd, 0xe6, 0xd7, 0xf5, 0x3d, 0x8a, 0xfc, 0xd0, 0x3d, 
  0xda, 0xaf, 0x30, 0x3e, 0x4d, 0x9a, 0x37, 0x3e, 0xe7, 0x94, 0xb1, 0xbd, 
  0x3b, 0x8d, 0xf9, 0xbe, 0xf4, 0x8b, 0x9f, 0xbc, 0xfe, 0x88, 0x83, 0x3e, 
  0x0d, 0x86, 0x56, 0xbd, 0x1b, 0x67, 0x4f, 0x3d, 0xd3, 0xfa, 0xbf, 0xbd, 
  0x18, 0x08, 0xb6, 0xbc, 0x53, 0xda, 0x49, 0x3d, 0xc1, 0xb8, 0x3b, 0xbd, 
  0x15, 0x29, 0x6b, 0xbe, 0x56, 0x43, 0x0c, 0xbe, 0x27, 0x6f, 0x54, 0x3e, 
  0x53, 0x46, 0x1b, 0x3e, 0x9f, 0x7f, 0x8d, 0xbe, 0xa3, 0x26, 0xef, 0xbe, 
  0xd6, 0xb5, 0x87, 0xbe, 0x16, 0xa7, 0x86, 0x3d, 0x3b, 0x4b, 0x96, 0x3d, 
  0xd7, 0xcf, 0x2d, 0x3e, 0x16, 0xe4, 0x01, 0x3e, 0xc7, 0xc4, 0x79, 0x3d, 
  0x23, 0x6d, 0x8b, 0xbe, 0xad, 0xca, 0x79, 0xbe, 0xdc, 0xf1, 0xe2, 0x3d, 
  0x04, 0x23, 0x48, 0x3c, 0xb8, 0x2e, 0x00, 0x3d, 0x45, 0xaf, 0xb8, 0xbc, 
  0xd9, 0x1f, 0xf3, 0x3c, 0xf5, 0x81, 0x4b, 0x3d, 0x77, 0xf0, 0xa0, 0x3e, 
  0x6d, 0xb3, 0x1a, 0x3e, 0x70, 0xb6, 0x1e, 0xbd, 0xf7, 0x5b, 0xc6, 0xbe, 
  0xb6, 0x32, 0xa7, 0x3d, 0xb0, 0xae, 0x19, 0xbe, 0x86, 0x31, 0x89, 0x3e, 
  0x84, 0x22, 0x16, 0xbe, 0xf5, 0xda, 0x6f, 0x3e, 0xfb, 0xf9, 0x79, 0x3e, 
  0x28, 0xfd, 0x34, 0x3e, 0x28, 0x32, 0x99, 0x3e, 0xde, 0xcd, 0xd7, 0xbd, 
  0xc1, 0x7d, 0x7b, 0x3d, 0x48, 0x76, 0xe5, 0xbd, 0x74, 0x09, 0xb5, 0xbd, 
  0x3b, 0x27, 0x85, 0xbe, 0xc5, 0xa3, 0xaa, 0xbe, 0x1c, 0x21, 0x83, 0xbe, 
  0xe3, 0x46, 0x30, 0x3e, 0x6e, 0xe6, 0xf4, 0xbd, 0x03, 0xfe, 0x51, 0x3d, 
  0x84, 0x1d, 0xe0, 0x3b, 0x12, 0xee, 0x2b, 0x3e, 0x08, 0x25, 0x14, 0x3d, 
  0x06, 0x35, 0x98, 0xbe, 0x92, 0xfc, 0xff, 0xff, 0x04, 0x00, 0x00, 0x00, 
  0xc0, 0x00, 0x00, 0x00, 0xc4, 0xb3, 0x9f, 0xbe, 0xf8, 0x58, 0x20, 0x3f, 
  0xd4, 0x72, 0xe9, 0xbe, 0xa1, 0xb1, 0x50, 0x3f, 0xf3, 0x58, 0x37, 0x3f, 
  0xf7, 0x55, 0x61, 0x3f, 0xd6, 0x89, 0xf2, 0x3e, 0xef, 0x56, 0x38, 0x3e, 
  0xe2, 0xed, 0x20, 0x3f, 0xf0, 0x74, 0x1c, 0x3f, 0xc9, 0x45, 0x31, 0x3f, 
  0x4f, 0x61, 0xdc, 0xbd, 0xda, 0x02, 0x9f, 0xbd, 0xc8, 0x82, 0xc4, 0xbe, 
  0x62, 0x94, 0x56, 0x3f, 0x0f, 0x5a, 0x39, 0x3f, 0xf5, 0xf0, 0x8f, 0xbd, 
  0x4f, 0xa9, 0x20, 0x3f, 0xe8, 0x74, 0x53, 0x3e, 0x66, 0xe5, 0x50, 0x3f, 
  0x39, 0x1b, 0x37, 0x3f, 0x0d, 0xd1, 0x61, 0x3f, 0xe7, 0xd3, 0xb9, 0xbd, 
  0xe1, 0x98, 0xb3, 0x3d, 0x65, 0xff, 0x20, 0x3f, 0x6d, 0x9a, 0x1c, 0x3f, 
  0x01, 0x70, 0x31, 0x3f, 0x13, 0xdd, 0x8c, 0xbe, 0x10, 0x1a, 0x60, 0xbe, 
  0x8c, 0x6e, 0x5a, 0x3e, 0xb5, 0x50, 0x56, 0x3f, 0x03, 0x50, 0x39, 0x3f, 
  0xc3, 0xba, 0x56, 0x3e, 0x18, 0x33, 0x20, 0x3f, 0x04, 0x94, 0x8a, 0xbe, 
  0x32, 0x29, 0x50, 0x3f, 0x8b, 0xdf, 0x36, 0x3f, 0x26, 0x9d, 0x60, 0x3f, 
  0xea, 0x64, 0xb1, 0xbe, 0x3d, 0x0c, 0xaa, 0xbe, 0x9e, 0x8e, 0x20, 0x3f, 
  0xdd, 0x1c, 0x1c, 0x3f, 0x12, 0xf0, 0x30, 0x3f, 0xe6, 0x8e, 0xc9, 0xbd, 
  0x53, 0xfd, 0x86, 0xbd, 0xf5, 0xa3, 0xb6, 0x3c, 0xa3, 0x47, 0x56, 0x3f, 
  0x0d, 0xc0, 0x38, 0x3f, 0x5e, 0xfd, 0xff, 0xff, 0x04, 0x00, 0x00, 0x00, 
  0x0c, 0x00, 0x00, 0x00, 0x28, 0xa7, 0x2e, 0x40, 0xe1, 0x0d, 0x2e, 0x40, 
  0x11, 0x41, 0x31, 0x40, 0x76, 0xfd, 0xff, 0xff, 0x04, 0x00, 0x00, 0x00, 
  0x80, 0x00, 0x00, 0x00, 0xf4, 0xe8, 0x2f, 0x3f, 0x70, 0xe1, 0xc1, 0x3e, 
  0xa4, 0xb4, 0x8e, 0x3e, 0x4c, 0x70, 0x1c, 0x3f, 0x4d, 0x51, 0xdc, 0x3e, 
  0x6b, 0xc4, 0x03, 0x3f, 0x27, 0x28, 0x93, 0x3e, 0x46, 0x62, 0xaf, 0x3e, 
  0x63, 0x75, 0x0d, 0x3f, 0xa4, 0x85, 0x04, 0xbf, 0x90, 0x06, 0xfc, 0x3e, 
  0x4d, 0x13, 0xce, 0x3e, 0x1c, 0xde, 0xde, 0x3e, 0x84, 0xe3, 0xcf, 0x3e, 
  0x7d, 0x62, 0xef, 0x3e, 0x34, 0x36, 0xd0, 0x3e, 0x3b, 0x2d, 0x99, 0x3e, 
  0x67, 0x6c, 0xdb, 0x3e, 0xd8, 0xda, 0x13, 0xbf, 0xa5, 0x1a, 0xeb, 0x3e, 
  0x1a, 0x6b, 0xa4, 0x3e, 0xbd, 0xe1, 0x09, 0x3f, 0xbe, 0x73, 0xe0, 0xbe, 
  0x95, 0xc4, 0x0c, 0xbf, 0x27, 0xe8, 0xd4, 0xbe, 0x0f, 0x0d, 0xdd, 0x3e, 
  0xfe, 0x77, 0x07, 0x3f, 0xf5, 0x2c, 0xf9, 0x3e, 0xa6, 0x4c, 0x04, 0x3f, 
  0xea, 0xfd, 0x0b, 0x3f, 0x06, 0xaf, 0xa6, 0xbe, 0x7b, 0x3b, 0xc6, 0xbe, 
  0x02, 0xfe, 0xff, 0xff, 0x04, 0x00, 0x00, 0x00, 0x40, 0x00, 0x00, 0x00, 
  0xc4, 0xc7, 0xbd, 0xbd, 0x55, 0x56, 0x04, 0x40, 0x9f, 0x2a, 0x89, 0xbd, 
  0x54, 0x28, 0xd2, 0x3f, 0x6e, 0x50, 0xbe, 0x3f, 0xac, 0xd1, 0x02, 0x40, 
  0xf4, 0x2f, 0x89, 0xbd, 0x67, 0x10, 0x80, 0xbd, 0x34, 0x8c, 0xd3, 0x3f, 
  0x21, 0xab, 0x10, 0x40, 0xdb, 0xfa, 0xba, 0x3f, 0x64, 0x6e, 0x94, 0xbd, 
  0xc7, 0x8e, 0xb7, 0xbd, 0xe0, 0x45, 0x92, 0xbd, 0x6d, 0xe3, 0xd7, 0x3f, 
  0x08, 0x4b, 0xf4, 0x3f, 0x4e, 0xfe, 0xff, 0xff, 0x04, 0x00, 0x00, 0x00, 
  0x04, 0x00, 0x00, 0x00, 0x28, 0x00, 0x00, 0x00, 0x5e, 0xfe, 0xff, 0xff, 
  0x04, 0x00, 0x00, 0x00, 0x04, 0x00, 0x00, 0x00, 0x00, 0x00, 0x00, 0x00, 
  0x6e, 0xfe, 0xff, 0xff, 0x04, 0x00, 0x00, 0x00, 0x04, 0x00, 0x00, 0x00, 
  0x01, 0x00, 0x00, 0x00, 0x44, 0xf6, 0xff, 0xff, 0x48, 0xf6, 0xff, 0xff, 
  0x0f, 0x00, 0x00, 0x00, 0x4d, 0x4c, 0x49, 0x52, 0x20, 0x43, 0x6f, 0x6e, 
  0x76, 0x65, 0x72, 0x74, 0x65, 0x64, 0x2e, 0x00, 0x01, 0x00, 0x00, 0x00, 
  0x14, 0x00, 0x00, 0x00, 0x00, 0x00, 0x0e, 0x00, 0x18, 0x00, 0x14, 0x00, 
  0x10, 0x00, 0x0c, 0x00, 0x08, 0x00, 0x04, 0x00, 0x0e, 0x00, 0x00, 0x00, 
  0x14, 0x00, 0x00, 0x00, 0x1c, 0x00, 0x00, 0x00, 0x04, 0x02, 0x00, 0x00, 
  0x08, 0x02, 0x00, 0x00, 0x0c, 0x02, 0x00, 0x00, 0x04, 0x00, 0x00, 0x00, 
  0x6d, 0x61, 0x69, 0x6e, 0x00, 0x00, 0x00, 0x00, 0x07, 0x00, 0x00, 0x00, 
  0xb4, 0x01, 0x00, 0x00, 0x54, 0x01, 0x00, 0x00, 0x04, 0x01, 0x00, 0x00, 
  0xdc, 0x00, 0x00, 0x00, 0x88, 0x00, 0x00, 0x00, 0x3c, 0x00, 0x00, 0x00, 
  0x04, 0x00, 0x00, 0x00, 0x92, 0xff, 0xff, 0xff, 0x14, 0x00, 0x00, 0x00, 
  0x00, 0x00, 0x00, 0x08, 0x10, 0x00, 0x00, 0x00, 0x14, 0x00, 0x00, 0x00, 
  0x04, 0x00, 0x00, 0x00, 0xd4, 0xf6, 0xff, 0xff, 0x01, 0x00, 0x00, 0x00, 
  0x10, 0x00, 0x00, 0x00, 0x03, 0x00, 0x00, 0x00, 0x0f, 0x00, 0x00, 0x00, 
  0x07, 0x00, 0x00, 0x00, 0x06, 0x00, 0x00, 0x00, 0xc6, 0xff, 0xff, 0xff, 
  0x14, 0x00, 0x00, 0x00, 0x00, 0x00, 0x00, 0x08, 0x14, 0x00, 0x00, 0x00, 
  0x18, 0x00, 0x00, 0x00, 0x04, 0x00, 0x00, 0x00, 0x9e, 0xfe, 0xff, 0xff, 
  0x00, 0x00, 0x00, 0x01, 0x01, 0x00, 0x00, 0x00, 0x0f, 0x00, 0x00, 0x00, 
  0x03, 0x00, 0x00, 0x00, 0x0e, 0x00, 0x00, 0x00, 0x08, 0x00, 0x00, 0x00, 
  0x04, 0x00, 0x00, 0x00, 0x00, 0x00, 0x0e, 0x00, 0x18, 0x00, 0x14, 0x00, 
  0x10, 0x00, 0x0c, 0x00, 0x0b, 0x00, 0x04, 0x00, 0x0e, 0x00, 0x00, 0x00, 
  0x20, 0x00, 0x00, 0x00, 0x00, 0x00, 0x00, 0x08, 0x20, 0x00, 0x00, 0x00, 
  0x24, 0x00, 0x00, 0x00, 0x04, 0x00, 0x00, 0x00, 0x0c, 0x00, 0x08, 0x00, 
  0x07, 0x00, 0x00, 0x00, 0x00, 0x00, 0x06, 0x00, 0x0c, 0x00, 0x00, 0x00, 
  0x00, 0x00, 0x01, 0x01, 0x01, 0x00, 0x00, 0x00, 0x0e, 0x00, 0x00, 0x00, 
  0x03, 0x00, 0x00, 0x00, 0x0d, 0x00, 0x00, 0x00, 0x09, 0x00, 0x00, 0x00, 
  0x05, 0x00, 0x00, 0x00, 0x00, 0x00, 0x0a, 0x00, 0x10, 0x00, 0x0c, 0x00, 
  0x08, 0x00, 0x04, 0x00, 0x0a, 0x00, 0x00, 0x00, 0x0c, 0x00, 0x00, 0x00, 
  0x10, 0x00, 0x00, 0x00, 0x03, 0x00, 0x00, 0x00, 0x01, 0x00, 0x00, 0x00, 
  0x0d, 0x00, 0x00, 0x00, 0x02, 0x00, 0x00, 0x00, 0x00, 0x00, 0x00, 0x00, 
  0x0c, 0x00, 0x00, 0x00, 0xc2, 0xff, 0xff, 0xff, 0x1c, 0x00, 0x00, 0x00, 
  0x00, 0x00, 0x00, 0x3b, 0x1c, 0x00, 0x00, 0x00, 0x20, 0x00, 0x00, 0x00, 
  0x02, 0x00, 0x00, 0x00, 0x00, 0x00, 0x06, 0x00, 0x08, 0x00, 0x04, 0x00, 
  0x06, 0x00, 0x00, 0x00, 0x02, 0x00, 0x00, 0x00, 0x01, 0x00, 0x00, 0x00, 
  0x0c, 0x00, 0x00, 0x00, 0x02, 0x00, 0x00, 0x00, 0x0b, 0x00, 0x00, 0x00, 
  0x03, 0x00, 0x00, 0x00, 0x00, 0x00, 0x0e, 0x00, 0x1a, 0x00, 0x14, 0x00, 
  0x10, 0x00, 0x0c, 0x00, 0x0b, 0x00, 0x04, 0x00, 0x0e, 0x00, 0x00, 0x00, 
  0x24, 0x00, 0x00, 0x00, 0x00, 0x00, 0x00, 0x20, 0x24, 0x00, 0x00, 0x00, 
  0x28, 0x00, 0x00, 0x00, 0x01, 0x00, 0x00, 0x00, 0x00, 0x00, 0x0e, 0x00, 
  0x08, 0x00, 0x00, 0x00, 0x00, 0x00, 0x00, 0x00, 0x00, 0x00, 0x04, 0x00, 
  0x0e, 0x00, 0x00, 0x00, 0x01, 0x00, 0x00, 0x00, 0x01, 0x00, 0x00, 0x00, 
  0x0b, 0x00, 0x00, 0x00, 0x04, 0x00, 0x00, 0x00, 0x0a, 0x00, 0x00, 0x00, 
  0x02, 0x00, 0x00, 0x00, 0x01, 0x00, 0x00, 0x00, 0x01, 0x00, 0x00, 0x00, 
  0x00, 0x00, 0x0e, 0x00, 0x16, 0x00, 0x00, 0x00, 0x10, 0x00, 0x0c, 0x00, 
  0x0b, 0x00, 0x04, 0x00, 0x0e, 0x00, 0x00, 0x00, 0x18, 0x00, 0x00, 0x00, 
  0x00, 0x00, 0x00, 0x37, 0x18, 0x00, 0x00, 0x00, 0x1c, 0x00, 0x00, 0x00, 
  0x00, 0x00, 0x06, 0x00, 0x08, 0x00, 0x07, 0x00, 0x06, 0x00, 0x00, 0x00, 
  0x00, 0x00, 0x00, 0x02, 0x01, 0x00, 0x00, 0x00, 0x0a, 0x00, 0x00, 0x00, 
  0x01, 0x00, 0x00, 0x00, 0x00, 0x00, 0x00, 0x00, 0x01, 0x00, 0x00, 0x00, 
  0x10, 0x00, 0x00, 0x00, 0x01, 0x00, 0x00, 0x00, 0x00, 0x00, 0x00, 0x00, 
  0x11, 0x00, 0x00, 0x00, 0x38, 0x07, 0x00, 0x00, 0xe0, 0x06, 0x00, 0x00, 
  0x88, 0x06, 0x00, 0x00, 0x4c, 0x06, 0x00, 0x00, 0x10, 0x06, 0x00, 0x00, 
  0xbc, 0x05, 0x00, 0x00, 0x80, 0x05, 0x00, 0x00, 0x40, 0x05, 0x00, 0x00, 
  0x00, 0x05, 0x00, 0x00, 0x1c, 0x03, 0x00, 0x00, 0xc8, 0x02, 0x00, 0x00, 
  0x70, 0x02, 0x00, 0x00, 0x14, 0x02, 0x00, 0x00, 0xb0, 0x01, 0x00, 0x00, 
  0x08, 0x01, 0x00, 0x00, 0x60, 0x00, 0x00, 0x00, 0x04, 0x00, 0x00, 0x00, 
  0x22, 0xf9, 0xff, 0xff, 0x00, 0x00, 0x00, 0x01, 0x14, 0x00, 0x00, 0x00, 
  0x1c, 0x00, 0x00, 0x00, 0x1c, 0x00, 0x00, 0x00, 0x11, 0x00, 0x00, 0x00, 
  0x34, 0x00, 0x00, 0x00, 0x02, 0x00, 0x00, 0x00, 0xff, 0xff, 0xff, 0xff, 
  0x03, 0x00, 0x00, 0x00, 0x08, 0xf9, 0xff, 0xff, 0x1b, 0x00, 0x00, 0x00, 
  0x53, 0x74, 0x61, 0x74, 0x65, 0x66, 0x75, 0x6c, 0x50, 0x61, 0x72, 0x74, 
  0x69, 0x74, 0x69, 0x6f, 0x6e, 0x65, 0x64, 0x43, 0x61, 0x6c, 0x6c, 0x5f, 
  0x31, 0x3a, 0x30, 0x00, 0x02, 0x00, 0x00, 0x00, 0x01, 0x00, 0x00, 0x00, 
  0x03, 0x00, 0x00, 0x00, 0x7a, 0xf9, 0xff, 0xff, 0x00, 0x00, 0x00, 0x01, 
  0x14, 0x00, 0x00, 0x00, 0x1c, 0x00, 0x00, 0x00, 0x1c, 0x00, 0x00, 0x00, 
  0x10, 0x00, 0x00, 0x00, 0x80, 0x00, 0x00, 0x00, 0x02, 0x00, 0x00, 0x00, 
  0xff, 0xff, 0xff, 0xff, 0x10, 0x00, 0x00, 0x00, 0x60, 0xf9, 0xff, 0xff, 
  0x67, 0x00, 0x00, 0x00, 0x4d, 0x4c, 0x50, 0x5f, 0x54, 0x65, 0x6d, 0x70, 
  0x65, 0x72, 0x61, 0x74, 0x75, 0x72, 0x65, 0x5f, 0x31, 0x2f, 0x64, 0x65, 
  0x6e, 0x73, 0x65, 0x5f, 0x32, 0x5f, 0x31, 0x2f, 0x4d, 0x61, 0x74, 0x4d, 
  0x75, 0x6c, 0x3b, 0x4d, 0x4c, 0x50, 0x5f, 0x54, 0x65, 0x6d, 0x70, 0x65, 
  0x72, 0x61, 0x74, 0x75, 0x72, 0x65, 0x5f, 0x31, 0x2f, 0x64, 0x65, 0x6e, 
  0x73, 0x65, 0x5f, 0x32, 0x5f, 0x31, 0x2f, 0x52, 0x65, 0x6c, 0x75, 0x3b, 
  0x4d, 0x4c, 0x50, 0x5f, 0x54, 0x65, 0x6d, 0x70, 0x65, 0x72, 0x61, 0x74, 
  0x75, 0x72, 0x65, 0x5f, 0x31, 0x2f, 0x64, 0x65, 0x6e, 0x73, 0x65, 0x5f, 
  0x32, 0x5f, 0x31, 0x2f, 0x42, 0x69, 0x61, 0x73, 0x41, 0x64, 0x64, 0x00, 
  0x02, 0x00, 0x00, 0x00, 0x01, 0x00, 0x00, 0x00, 0x10, 0x00, 0x00, 0x00, 
  0x1e, 0xfa, 0xff, 0xff, 0x00, 0x00, 0x00, 0x01, 0x14, 0x00, 0x00, 0x00, 
  0x1c, 0x00, 0x00, 0x00, 0x1c, 0x00, 0x00, 0x00, 0x0f, 0x00, 0x00, 0x00, 
  0x80, 0x00, 0x00, 0x00, 0x02, 0x00, 0x00, 0x00, 0xff, 0xff, 0xff, 0xff, 
  0x20, 0x00, 0x00, 0x00, 0x04, 0xfa, 0xff, 0xff, 0x67, 0x00, 0x00, 0x00, 
  0x4d, 0x4c, 0x50, 0x5f, 0x54, 0x65, 0x6d, 0x70, 0x65, 0x72, 0x61, 0x74, 
  0x75, 0x72, 0x65, 0x5f, 0x31, 0x2f, 0x64, 0x65, 0x6e, 0x73, 0x65, 0x5f, 
  0x31, 0x5f, 0x31, 0x2f, 0x4d, 0x61, 0x74, 0x4d, 0x75, 0x6c, 0x3b, 0x4d, 
  0x4c, 0x50, 0x5f, 0x54, 0x65, 0x6d, 0x70, 0x65, 0x72, 0x61, 0x74, 0x75, 
  0x72, 0x65, 0x5f, 0x31, 0x2f, 0x64, 0x65, 0x6e, 0x73, 0x65, 0x5f, 0x31, 
  0x5f, 0x31, 0x2f, 0x52, 0x65, 0x6c, 0x75, 0x3b, 0x4d, 0x4c, 0x50, 0x5f, 
  0x54, 0x65, 0x6d, 0x70, 0x65, 0x72, 0x61, 0x74, 0x75, 0x72, 0x65, 0x5f, 
  0x31, 0x2f, 0x64, 0x65, 0x6e, 0x73, 0x65, 0x5f, 0x31, 0x5f, 0x31, 0x2f, 
  0x42, 0x69, 0x61, 0x73, 0x41, 0x64, 0x64, 0x00, 0x02, 0x00, 0x00, 0x00, 
  0x01, 0x00, 0x00, 0x00, 0x20, 0x00, 0x00, 0x00, 0xc2, 0xfa, 0xff, 0xff, 
  0x00, 0x00, 0x00, 0x01, 0x14, 0x00, 0x00, 0x00, 0x1c, 0x00, 0x00, 0x00, 
  0x1c, 0x00, 0x00, 0x00, 0x0e, 0x00, 0x00, 0x00, 0x3c, 0x00, 0x00, 0x00, 
  0x02, 0x00, 0x00, 0x00, 0xff, 0xff, 0xff, 0xff, 0x28, 0x00, 0x00, 0x00, 
  0xa8, 0xfa, 0xff, 0xff, 0x23, 0x00, 0x00, 0x00, 0x4d, 0x4c, 0x50, 0x5f, 
  0x54, 0x65, 0x6d, 0x70, 0x65, 0x72, 0x61, 0x74, 0x75, 0x72, 0x65, 0x5f, 
  0x31, 0x2f, 0x66, 0x6c, 0x61, 0x74, 0x74, 0x65, 0x6e, 0x5f, 0x31, 0x2f, 
  0x52, 0x65, 0x73, 0x68, 0x61, 0x70, 0x65, 0x00, 0x02, 0x00, 0x00, 0x00, 
  0x01, 0x00, 0x00, 0x00, 0x28, 0x00, 0x00, 0x00, 0x76, 0xfb, 0xff, 0xff, 
  0x00, 0x00, 0x00, 0x01, 0x14, 0x00, 0x00, 0x00, 0x14, 0x00, 0x00, 0x00, 
  0x0d, 0x00, 0x00, 0x00, 0x00, 0x00, 0x00, 0x02, 0x38, 0x00, 0x00, 0x00, 
  0xfc, 0xfa, 0xff, 0xff, 0x29, 0x00, 0x00, 0x00, 0x4d, 0x4c, 0x50, 0x5f, 
  0x54, 0x65, 0x6d, 0x70, 0x65, 0x72, 0x61, 0x74, 0x75, 0x72, 0x65, 0x5f, 
  0x31, 0x2f, 0x66, 0x6c, 0x61, 0x74, 0x74, 0x65, 0x6e, 0x5f, 0x31, 0x2f, 
  0x52, 0x65, 0x73, 0x68, 0x61, 0x70, 0x65, 0x2f, 0x73, 0x68, 0x61, 0x70, 
  0x65, 0x00, 0x00, 0x00, 0x01, 0x00, 0x00, 0x00, 0x02, 0x00, 0x00, 0x00, 
  0xce, 0xfb, 0xff, 0xff, 0x00, 0x00, 0x00, 0x01, 0x14, 0x00, 0x00, 0x00, 
  0x14, 0x00, 0x00, 0x00, 0x0c, 0x00, 0x00, 0x00, 0x00, 0x00, 0x00, 0x02, 
  0x38, 0x00, 0x00, 0x00, 0x54, 0xfb, 0xff, 0xff, 0x29, 0x00, 0x00, 0x00, 
  0x4d, 0x4c, 0x50, 0x5f, 0x54, 0x65, 0x6d, 0x70, 0x65, 0x72, 0x61, 0x74, 
  0x75, 0x72, 0x65, 0x5f, 0x31, 0x2f, 0x66, 0x6c, 0x61, 0x74, 0x74, 0x65, 
  0x6e, 0x5f, 0x31, 0x2f, 0x73, 0x74, 0x72, 0x69, 0x64, 0x65, 0x64, 0x5f, 
  0x73, 0x6c, 0x69, 0x63, 0x65, 0x00, 0x00, 0x00, 0x00, 0x00, 0x00, 0x00, 
  0x22, 0xfc, 0xff, 0xff, 0x00, 0x00, 0x00, 0x01, 0x14, 0x00, 0x00, 0x00, 
  0x14, 0x00, 0x00, 0x00, 0x0b, 0x00, 0x00, 0x00, 0x00, 0x00, 0x00, 0x02, 
  0x30, 0x00, 0x00, 0x00, 0xa8, 0xfb, 0xff, 0xff, 0x21, 0x00, 0x00, 0x00, 
  0x4d, 0x4c, 0x50, 0x5f, 0x54, 0x65, 0x6d, 0x70, 0x65, 0x72, 0x61, 0x74, 
  0x75, 0x72, 0x65, 0x5f, 0x31, 0x2f, 0x66, 0x6c, 0x61, 0x74, 0x74, 0x65, 
  0x6e, 0x5f, 0x31, 0x2f, 0x53, 0x68, 0x61, 0x70, 0x65, 0x00, 0x00, 0x00, 
  0x01, 0x00, 0x00, 0x00, 0x03, 0x00, 0x00, 0x00, 0x72, 0xfc, 0xff, 0xff, 
  0x00, 0x00, 0x00, 0x01, 0x20, 0x00, 0x00, 0x00, 0xb0, 0x01, 0x00, 0x00, 
  0x0a, 0x00, 0x00, 0x00, 0x00, 0x00, 0x00, 0x09, 0xbc, 0x01, 0x00, 0x00, 
  0x0c, 0x00, 0x0c, 0x00, 0x00, 0x00, 0x00, 0x00, 0x08, 0x00, 0x04, 0x00, 
  0x0c, 0x00, 0x00, 0x00, 0x08, 0x00, 0x00, 0x00, 0x08, 0x01, 0x00, 0x00, 
  0x20, 0x00, 0x00, 0x00, 0x00, 0x00, 0x00, 0x00, 0x00, 0x00, 0x00, 0x00, 
  0x00, 0x00, 0x00, 0x00, 0x00, 0x00, 0x00, 0x00, 0x00, 0x00, 0x00, 0x00, 
  0x00, 0x00, 0x00, 0x00, 0x00, 0x00, 0x00, 0x00, 0x00, 0x00, 0x00, 0x00, 
  0x00, 0x00, 0x00, 0x00, 0x00, 0x00, 0x00, 0x00, 0x00, 0x00, 0x00, 0x00, 
  0x00, 0x00, 0x00, 0x00, 0x00, 0x00, 0x00, 0x00, 0x00, 0x00, 0x00, 0x00, 
  0x00, 0x00, 0x00, 0x00, 0x00, 0x00, 0x00, 0x00, 0x00, 0x00, 0x00, 0x00, 
  0x00, 0x00, 0x00, 0x00, 0x00, 0x00, 0x00, 0x00, 0x00, 0x00, 0x00, 0x00, 
  0x00, 0x00, 0x00, 0x00, 0x00, 0x00, 0x00, 0x00, 0x00, 0x00, 0x00, 0x00, 
  0x00, 0x00, 0x00, 0x00, 0x00, 0x00, 0x00, 0x00, 0x00, 0x00, 0x00, 0x00, 
  0x00, 0x00, 0x00, 0x00, 0x00, 0x00, 0x00, 0x00, 0x00, 0x00, 0x00, 0x00, 
  0x00, 0x00, 0x00, 0x00, 0x00, 0x00, 0x00, 0x00, 0x00, 0x00, 0x00, 0x00, 
  0x00, 0x00, 0x00, 0x00, 0x00, 0x00, 0x00, 0x00, 0x00, 0x00, 0x00, 0x00, 
  0x00, 0x00, 0x00, 0x00, 0x00, 0x00, 0x00, 0x00, 0x00, 0x00, 0x00, 0x00, 
  0x00, 0x00, 0x00, 0x00, 0x00, 0x00, 0x00, 0x00, 0x00, 0x00, 0x00, 0x00, 
  0x00, 0x00, 0x00, 0x00, 0x00, 0x00, 0x00, 0x00, 0x00, 0x00, 0x00, 0x00, 
  0x00, 0x00, 0x00, 0x00, 0x00, 0x00, 0x00, 0x00, 0x00, 0x00, 0x00, 0x00, 
  0x00, 0x00, 0x00, 0x00, 0x00, 0x00, 0x00, 0x00, 0x00, 0x00, 0x00, 0x00, 
  0x00, 0x00, 0x00, 0x00, 0x00, 0x00, 0x00, 0x00, 0x00, 0x00, 0x00, 0x00, 
  0x00, 0x00, 0x00, 0x00, 0x00, 0x00, 0x00, 0x00, 0x00, 0x00, 0x00, 0x00, 
  0x00, 0x00, 0x00, 0x00, 0x00, 0x00, 0x00, 0x00, 0x00, 0x00, 0x00, 0x00, 
  0x00, 0x00, 0x00, 0x00, 0x00, 0x00, 0x00, 0x00, 0x00, 0x00, 0x00, 0x00, 
  0x00, 0x00, 0x00, 0x00, 0x00, 0x00, 0x00, 0x00, 0x20, 0x00, 0x00, 0x00, 
  0x4e, 0x88, 0x0d, 0x3b, 0x8b, 0x78, 0x09, 0x3b, 0x02, 0x0d, 0x14, 0x3b, 
  0xf8, 0xa0, 0x22, 0x3b, 0x99, 0x4e, 0x1a, 0x3b, 0x39, 0xe4, 0x13, 0x3b, 
  0x03, 0xb2, 0x23, 0x3b, 0x9c, 0x27, 0x17, 0x3b, 0x3c, 0x21, 0x36, 0x3b, 
  0x13, 0xa7, 0x1a, 0x3b, 0xe9, 0x54, 0x11, 0x3b, 0x44, 0x2a, 0x1d, 0x3b, 
  0x32, 0x80, 0x1b, 0x3b, 0xde, 0xfd, 0x0b, 0x3b, 0xda, 0xf6, 0x14, 0x3b, 
  0x0c, 0x40, 0xfc, 0x3a, 0xfc, 0x6b, 0x25, 0x3b, 0xf2, 0x84, 0x14, 0x3b, 
  0x7c, 0x4c, 0x12, 0x3b, 0xa1, 0x63, 0x1f, 0x3b, 0x6a, 0x78, 0x1a, 0x3b, 
  0x44, 0x5d, 0x12, 0x3b, 0x2e, 0xcf, 0x1b, 0x3b, 0x59, 0x63, 0x0f, 0x3b, 
  0x4f, 0xfd, 0x0e, 0x3b, 0xc5, 0x47, 0x0a, 0x3b, 0x96, 0x48, 0x2e, 0x3b, 
  0x45, 0xc8, 0x03, 0x3b, 0xb8, 0xda, 0x12, 0x3b, 0xd4, 0x40, 0x2d, 0x3b, 
  0x9c, 0xec, 0x15, 0x3b, 0x15, 0x08, 0x17, 0x3b, 0x11, 0x00, 0x00, 0x00, 
  0x74, 0x66, 0x6c, 0x2e, 0x70, 0x73, 0x65, 0x75, 0x64, 0x6f, 0x5f, 0x71, 
  0x63, 0x6f, 0x6e, 0x73, 0x74, 0x00, 0x00, 0x00, 0x02, 0x00, 0x00, 0x00, 
  0x20, 0x00, 0x00, 0x00, 0x28, 0x00, 0x00, 0x00, 0x16, 0xff, 0xff, 0xff, 
  0x00, 0x00, 0x00, 0x01, 0x10, 0x00, 0x00, 0x00, 0x10, 0x00, 0x00, 0x00, 
  0x09, 0x00, 0x00, 0x00, 0x1c, 0x00, 0x00, 0x00, 0xd4, 0xfd, 0xff, 0xff, 
  0x0f, 0x00, 0x00, 0x00, 0x61, 0x72, 0x69, 0x74, 0x68, 0x2e, 0x63, 0x6f, 
  0x6e, 0x73, 0x74, 0x61, 0x6e, 0x74, 0x37, 0x00, 0x02, 0x00, 0x00, 0x00, 
  0x10, 0x00, 0x00, 0x00, 0x20, 0x00, 0x00, 0x00, 0x52, 0xff, 0xff, 0xff, 
  0x00, 0x00, 0x00, 0x01, 0x10, 0x00, 0x00, 0x00, 0x10, 0x00, 0x00, 0x00, 
  0x08, 0x00, 0x00, 0x00, 0x1c, 0x00, 0x00, 0x00, 0x10, 0xfe, 0xff, 0xff, 
  0x0f, 0x00, 0x00, 0x00, 0x61, 0x72, 0x69, 0x74, 0x68, 0x2e, 0x63, 0x6f, 
  0x6e, 0x73, 0x74, 0x61, 0x6e, 0x74, 0x36, 0x00, 0x02, 0x00, 0x00, 0x00, 
  0x03, 0x00, 0x00, 0x00, 0x10, 0x00, 0x00, 0x00, 0x8e, 0xff, 0xff, 0xff, 
  0x00, 0x00, 0x00, 0x01, 0x10, 0x00, 0x00, 0x00, 0x10, 0x00, 0x00, 0x00, 
  0x07, 0x00, 0x00, 0x00, 0x1c, 0x00, 0x00, 0x00, 0x4c, 0xfe, 0xff, 0xff, 
  0x0f, 0x00, 0x00, 0x00, 0x61, 0x72, 0x69, 0x74, 0x68, 0x2e, 0x63, 0x6f, 
  0x6e, 0x73, 0x74, 0x61, 0x6e, 0x74, 0x35, 0x00, 0x01, 0x00, 0x00, 0x00, 
  0x03, 0x00, 0x00, 0x00, 0xc6, 0xff, 0xff, 0xff, 0x00, 0x00, 0x00, 0x01, 
  0x10, 0x00, 0x00, 0x00, 0x10, 0x00, 0x00, 0x00, 0x06, 0x00, 0x00, 0x00, 
  0x1c, 0x00, 0x00, 0x00, 0x84, 0xfe, 0xff, 0xff, 0x0f, 0x00, 0x00, 0x00, 
  0x61, 0x72, 0x69, 0x74, 0x68, 0x2e, 0x63, 0x6f, 0x6e, 0x73, 0x74, 0x61, 
  0x6e, 0x74, 0x34, 0x00, 0x01, 0x00, 0x00, 0x00, 0x20, 0x00, 0x00, 0x00, 
  0x00, 0x00, 0x16, 0x00, 0x18, 0x00, 0x14, 0x00, 0x00, 0x00, 0x10, 0x00, 
  0x0c, 0x00, 0x08, 0x00, 0x00, 0x00, 0x00, 0x00, 0x00, 0x00, 0x07, 0x00, 
  0x16, 0x00, 0x00, 0x00, 0x00, 0x00, 0x00, 0x01, 0x10, 0x00, 0x00, 0x00, 
  0x10, 0x00, 0x00, 0x00, 0x05, 0x00, 0x00, 0x00, 0x1c, 0x00, 0x00, 0x00, 
  0xd4, 0xfe, 0xff, 0xff, 0x0f, 0x00, 0x00, 0x00, 0x61, 0x72, 0x69, 0x74, 
  0x68, 0x2e, 0x63, 0x6f, 0x6e, 0x73, 0x74, 0x61, 0x6e, 0x74, 0x33, 0x00, 
  0x01, 0x00, 0x00, 0x00, 0x10, 0x00, 0x00, 0x00, 0x8a, 0xff, 0xff, 0xff, 
  0x00, 0x00, 0x00, 0x01, 0x14, 0x00, 0x00, 0x00, 0x14, 0x00, 0x00, 0x00, 
  0x04, 0x00, 0x00, 0x00, 0x00, 0x00, 0x00, 0x02, 0x1c, 0x00, 0x00, 0x00, 
  0x10, 0xff, 0xff, 0xff, 0x0f, 0x00, 0x00, 0x00, 0x61, 0x72, 0x69, 0x74, 
  0x68, 0x2e, 0x63, 0x6f, 0x6e, 0x73, 0x74, 0x61, 0x6e, 0x74, 0x32, 0x00, 
  0x00, 0x00, 0x00, 0x00, 0xc2, 0xff, 0xff, 0xff, 0x00, 0x00, 0x00, 0x01, 
  0x14, 0x00, 0x00, 0x00, 0x14, 0x00, 0x00, 0x00, 0x03, 0x00, 0x00, 0x00, 
  0x00, 0x00, 0x00, 0x02, 0x1c, 0x00, 0x00, 0x00, 0x48, 0xff, 0xff, 0xff, 
  0x0f, 0x00, 0x00, 0x00, 0x61, 0x72, 0x69, 0x74, 0x68, 0x2e, 0x63, 0x6f, 
  0x6e, 0x73, 0x74, 0x61, 0x6e, 0x74, 0x31, 0x00, 0x01, 0x00, 0x00, 0x00, 
  0x01, 0x00, 0x00, 0x00, 0x00, 0x00, 0x16, 0x00, 0x1c, 0x00, 0x18, 0x00, 
  0x17, 0x00, 0x10, 0x00, 0x0c, 0x00, 0x08, 0x00, 0x00, 0x00, 0x00, 0x00, 
  0x00, 0x00, 0x07, 0x00, 0x16, 0x00, 0x00, 0x00, 0x00, 0x00, 0x00, 0x01, 
  0x14, 0x00, 0x00, 0x00, 0x14, 0x00, 0x00, 0x00, 0x02, 0x00, 0x00, 0x00, 
  0x00, 0x00, 0x00, 0x02, 0x1c, 0x00, 0x00, 0x00, 0x9c, 0xff, 0xff, 0xff, 
  0x0e, 0x00, 0x00, 0x00, 0x61, 0x72, 0x69, 0x74, 0x68, 0x2e, 0x63, 0x6f, 
  0x6e, 0x73, 0x74, 0x61, 0x6e, 0x74, 0x00, 0x00, 0x01, 0x00, 0x00, 0x00, 
  0x01, 0x00, 0x00, 0x00, 0x00, 0x00, 0x16, 0x00, 0x1c, 0x00, 0x18, 0x00, 
  0x00, 0x00, 0x14, 0x00, 0x10, 0x00, 0x0c, 0x00, 0x00, 0x00, 0x00, 0x00, 
  0x08, 0x00, 0x07, 0x00, 0x16, 0x00, 0x00, 0x00, 0x00, 0x00, 0x00, 0x01, 
  0x14, 0x00, 0x00, 0x00, 0x24, 0x00, 0x00, 0x00, 0x24, 0x00, 0x00, 0x00, 
  0x01, 0x00, 0x00, 0x00, 0x40, 0x00, 0x00, 0x00, 0x03, 0x00, 0x00, 0x00, 
  0xff, 0xff, 0xff, 0xff, 0x0a, 0x00, 0x00, 0x00, 0x04, 0x00, 0x00, 0x00, 
  0x04, 0x00, 0x04, 0x00, 0x04, 0x00, 0x00, 0x00, 0x1e, 0x00, 0x00, 0x00, 
  0x73, 0x65, 0x72, 0x76, 0x69, 0x6e, 0x67, 0x5f, 0x64, 0x65, 0x66, 0x61, 
  0x75, 0x6c, 0x74, 0x5f, 0x6b, 0x65, 0x72, 0x61, 0x73, 0x5f, 0x74, 0x65, 
  0x6e, 0x73, 0x6f, 0x72, 0x3a, 0x30, 0x00, 0x00, 0x03, 0x00, 0x00, 0x00, 
  0x01, 0x00, 0x00, 0x00, 0x0a, 0x00, 0x00, 0x00, 0x04, 0x00, 0x00, 0x00, 
  0x05, 0x00, 0x00, 0x00, 0x60, 0x00, 0x00, 0x00, 0x44, 0x00, 0x00, 0x00, 
  0x34, 0x00, 0x00, 0x00, 0x24, 0x00, 0x00, 0x00, 0x10, 0x00, 0x00, 0x00, 
  0x0c, 0x00, 0x10, 0x00, 0x0f, 0x00, 0x00, 0x00, 0x08, 0x00, 0x04, 0x00, 
  0x0c, 0x00, 0x00, 0x00, 0x09, 0x00, 0x00, 0x00, 0x0c, 0x00, 0x00, 0x00, 
  0x00, 0x00, 0x00, 0x09, 0xdc, 0xff, 0xff, 0xff, 0x16, 0x00, 0x00, 0x00, 
  0x00, 0x00, 0x00, 0x16, 0xe8, 0xff, 0xff, 0xff, 0x53, 0x00, 0x00, 0x00, 
  0x00, 0x00, 0x00, 0x53, 0xf4, 0xff, 0xff, 0xff, 0x2d, 0x00, 0x00, 0x00, 
  0x00, 0x00, 0x00, 0x2d, 0x0c, 0x00, 0x0c, 0x00, 0x0b, 0x00, 0x00, 0x00, 
  0x00, 0x00, 0x04, 0x00, 0x0c, 0x00, 0x00, 0x00, 0x4d, 0x00, 0x00, 0x00, 
  0x00, 0x00, 0x00, 0x4d, 
};
const unsigned int temperature_model_len = 7024;

#endif // TEMPERATURE_MODEL_H
